{"model": {"vocab": {"environmentally</w>": 32855, "\u00ec\u00b6\u0137\u00ed\u0137\u013a": 47866, "cheered</w>": 38111, "eels</w>": 44416, "\u010a": 198, "kean": 43288, "mister</w>": 18895, "kanye</w>": 14965, "tdf</w>": 21844, "eer": 35409, "nuns</w>": 44061, "handicap</w>": 27063, "stinky</w>": 44957, "disposal</w>": 28231, "severely</w>": 24417, "iers</w>": 45060, "tholes</w>": 42465, "geri</w>": 46214, "oom</w>": 15002, "opra</w>": 28291, "imsa</w>": 37262, "symbolic</w>": 33177, "hydro": 8368, "mcqueen</w>": 22544, "civ": 40039, "yatra</w>": 38932, "contest</w>": 4576, "guam</w>": 37325, "bullet": 14340, "aren</w>": 4318, "yoshi": 22920, "hex</w>": 31241, "bod": 17904, "shahe": 23643, "ittle": 24208, "traced</w>": 47956, "worcestershire</w>": 38440, "han</w>": 3565, "krat": 30470, "seattle": 24388, "barne": 42527, "heal": 1231, "move</w>": 2783, "proportion</w>": 35775, "tose</w>": 38154, "trolls</w>": 20890, "util": 28824, "emery</w>": 32678, "abbrevi": 44843, "survival</w>": 10172, "bass</w>": 5992, "intestinal</w>": 38896, "stom</w>": 38068, "patrols</w>": 35978, "perm</w>": 47847, "watt": 22899, "mori</w>": 29514, "packard</w>": 46421, "insta</w>": 11694, "consen": 23110, "hollow": 41221, "kovich</w>": 44794, "ide</w>": 14104, "\u00f0\u0141\u0129\u00b9": 21810, "aed</w>": 26912, "gifting</w>": 39546, "lied</w>": 6486, "gpa</w>": 24098, "psycho": 6472, "fry</w>": 13686, "salaam</w>": 46773, "recipi": 10136, "maddie": 39959, "kud": 40818, "stadion</w>": 48815, "persons</w>": 14592, "microbiome</w>": 35148, "faculty</w>": 9504, "sata</w>": 41520, "passive</w>": 23171, "uper": 38082, "puff": 44477, "iner": 17438, "poon</w>": 36178, "logically</w>": 24782, "lls</w>": 40535, "san": 1489, "ctf</w>": 35250, "\u00ae</w>": 362, "spart": 10143, "find": 18638, "middleeast</w>": 32783, "cep": 2632, "starred</w>": 24180, "defying</w>": 38496, "kee</w>": 6760, "braun": 39129, "please": 41074, "kahn</w>": 35397, "memo": 15967, "norman</w>": 11338, "selling</w>": 4396, "hyundai</w>": 17094, "iiot</w>": 30704, "scrambled</w>": 39026, "pints</w>": 27935, "malaria</w>": 24929, "gamer": 12595, "ignores</w>": 40129, "shar": 1669, "coul": 22483, "motorway</w>": 31808, "sherman</w>": 17822, "doop</w>": 33886, "pci</w>": 38957, "\u00e0\u00a5\u012d</w>": 34452, "bt</w>": 4205, "chiropractic</w>": 34437, "laze</w>": 41559, "mancrushmonday</w>": 39307, "osi": 25247, "colours</w>": 7626, "anglican</w>": 33284, "quitting</w>": 33871, "datacenter</w>": 40133, "angola</w>": 36636, "elisabeth</w>": 33127, "lincol": 6239, "detro": 6210, "capitol": 43880, "hind</w>": 23293, "hezbollah</w>": 37636, "agle</w>": 16702, "warmest</w>": 30910, "caught</w>": 4520, "\u00e2\u013b\u00a5\u00e2\u013b\u00a5\u00e2\u013b\u00a5</w>": 23255, "mosley</w>": 46228, "reactor</w>": 32037, "sunsets</w>": 17721, "lll</w>": 27177, "micheal</w>": 43709, "mont": 5186, "albert</w>": 9507, "cyclo": 18122, "sdg</w>": 20177, "scavenger</w>": 36778, "\u00e2\u013f\u0126": 8501, "quadru": 35831, "gray</w>": 7048, "stuff": 46072, "fig</w>": 20719, "even": 6359, "hib": 15922, "esg</w>": 41674, "kitten</w>": 13063, "trou": 5181, "frosh</w>": 47069, "examining</w>": 30616, "pso": 27045, "ugand": 25965, "kick": 4102, "murderer</w>": 26956, "footwear</w>": 22772, "rally</w>": 5041, "pairing</w>": 16313, "exists</w>": 14608, "\u00c4\u00b1</w>": 41901, "pickles</w>": 25001, "loren</w>": 33398, "fitness</w>": 4838, "supplies</w>": 9384, "\u00f0\u0141\u0135\u00b1": 36104, "cordless</w>": 44412, "vulnerable</w>": 14332, "emily</w>": 7640, "maddow</w>": 32644, "cutout</w>": 45016, "barb": 24173, "baird</w>": 40474, "dotted</w>": 47950, "augusta</w>": 26144, "necklace</w>": 7385, "hah</w>": 13680, "dogg</w>": 20749, "dians</w>": 21041, "intern": 9976, "jal": 8380, "ador": 4992, "unparalleled</w>": 44396, "foto</w>": 12823, "jeffree": 45994, "repair</w>": 8419, "eric</w>": 5396, "amari": 42565, "========": 38952, "nyo": 41534, "camera</w>": 3934, "copa</w>": 22749, "racks</w>": 21191, "asco": 25578, "reed": 26209, ".''</w>": 49379, "kineni</w>": 49080, "barnab": 43272, "laden</w>": 28634, "\u011f": 219, "hella</w>": 19800, "ldn</w>": 2517, "carou": 32224, "alexandria</w>": 21171, "gras</w>": 17584, "\u00f0\u0141\u013a\u012f\u00f0\u0141\u013a\u0124</w>": 48715, "fman</w>": 25152, "sheff": 38844, "\u00e2\u012e\u013c\u00ef\u00b8\u0131</w>": 35931, "pregnancy</w>": 12769, "auster": 25030, "madu": 34913, "sunset</w>": 3424, "oll": 32270, "reflected</w>": 28732, "burlington</w>": 23370, "slaugh": 26782, "filter</w>": 7541, "mango": 43831, "ured</w>": 4210, "alert</w>": 4662, "defam": 35670, "beam</w>": 13663, "humour</w>": 19161, "dyn</w>": 30669, "danny</w>": 7621, "thorns</w>": 33650, "letting</w>": 9510, "knoll</w>": 43882, "kidnapped</w>": 24737, "webster</w>": 19471, "stration</w>": 3156, "clapham</w>": 43619, "spend</w>": 4664, "\u00f0\u0141\u013a\u012f\u00f0\u0141\u013a\u012f\u00f0\u0141\u013a\u012f": 30614, "tink": 39278, "boun": 5993, "kentucky": 32230, "killing</w>": 5923, "ju": 669, "etf</w>": 31661, "\u00f0\u0141\u0136\u00b7</w>": 37740, "vols</w>": 20404, "marnock</w>": 48305, "adays</w>": 24337, "monk": 30557, "letsgo": 16967, "vito</w>": 36725, "pom</w>": 24280, "C": 34, "hailing</w>": 47288, "varian</w>": 34334, "hours</w>": 2382, "supercell</w>": 43227, "sutton": 39359, "observed</w>": 21267, "tragic</w>": 14828, "mathematician</w>": 41036, "blackfish</w>": 42193, "camo</w>": 19716, "ligament</w>": 48705, "euph": 21386, "afford</w>": 13223, "howie</w>": 42939, "cynthi": 41994, "spires</w>": 46938, "spacey</w>": 48770, "flock</w>": 21822, "ankles</w>": 48688, "style": 12356, "smir": 24667, "occup": 11152, "stak": 39144, "clement</w>": 24714, "bn</w>": 7992, "\u0111": 205, "gree</w>": 30774, "litho": 31088, "volun": 3356, "poyn": 47655, "stakeholder</w>": 39122, "ku": 1836, "sculp": 6093, "kearney</w>": 36435, "butler": 35867, "hypocr": 30711, "quentin</w>": 27530, "primed</w>": 45694, "izer</w>": 23895, "names</w>": 6130, "glas": 29935, "its": 7140, "record</w>": 2717, "anza</w>": 14669, "cow</w>": 9706, "apollo": 48213, "ornaments</w>": 28968, "double</w>": 3200, "inktober</w>": 9387, "throws</w>": 14723, "mica</w>": 41551, "barrel</w>": 11703, "mariachi</w>": 44299, "fightfor</w>": 35740, "evans</w>": 8836, "primary</w>": 5814, "spyder</w>": 39952, "lich": 23979, "hehe": 48723, "superint": 17615, "direc": 1534, "\u00e2\u013e\u012c</w>": 17819, "disgusting</w>": 16218, "---</w>": 11079, "\u00f0\u0141\u013a\u00a9</w>": 9494, "whitfield</w>": 48404, "opening</w>": 2516, "banana</w>": 8922, "skipped</w>": 40639, "greasy</w>": 44376, "sym": 3645, "cooks</w>": 24256, "ende</w>": 40306, "crush": 22296, "spion": 39604, "mof": 30798, "theater</w>": 6128, "tripoli</w>": 40095, "hod": 31062, "creators</w>": 17981, "butter</w>": 6952, "breastcancer</w>": 30065, "menopau": 34974, "shortfilm</w>": 37204, "jona": 6629, "joao</w>": 45666, "nero</w>": 29048, "sylla": 41708, "unwanted</w>": 25285, "texan": 35287, "cted</w>": 2910, "rigs</w>": 42893, "bit</w>": 2010, "wall": 4316, "taj": 28937, "pillows</w>": 26499, "aspirations</w>": 36127, "rrp</w>": 36967, "exit</w>": 9374, "cheri": 26471, "glen": 6158, "somes</w>": 38124, "psal": 13859, "topper</w>": 31780, "fc": 4278, "caliber</w>": 32820, "bile</w>": 25943, "experts</w>": 6960, "ponty": 45152, "ick</w>": 1068, "buenas</w>": 48529, "dings</w>": 5473, "taliban</w>": 20788, "priscilla</w>": 42396, "machine": 11539, "descrip": 41832, "gola</w>": 41090, "flu</w>": 13528, "aaaa": 6727, "merton</w>": 35315, "disclosed</w>": 30905, "daf": 9972, "haal</w>": 35869, "tds</w>": 20238, "elius</w>": 35623, "engraved</w>": 29421, "anniversary</w>": 3048, "clip": 39712, "tumour</w>": 45129, "headset</w>": 23883, "synagogue</w>": 33518, "digital": 4704, "tsville</w>": 29080, "\u00f0\u0141\u0134\u0133</w>": 49404, "tournament</w>": 4097, "newspaper</w>": 8786, "jacqu": 14495, "omez</w>": 12541, "command</w>": 11350, "womenintech</w>": 31470, "marca</w>": 38242, "ethan": 24245, "mis": 866, "\u00e0\u00af\u012f</w>": 16631, "terri": 4504, "elm</w>": 22082, "anticipated</w>": 18605, "sonoma</w>": 26269, "urine</w>": 28864, "ni</w>": 3256, "boast</w>": 44467, "mlb</w>": 7482, "selected</w>": 6881, "merry": 14167, "numbers</w>": 6121, "taught</w>": 9306, "\u00f0\u0141\u0134\u00ab</w>": 12526, "aziz": 41205, "psu": 41286, "lakhs</w>": 37985, "consulting</w>": 15883, "decent</w>": 10698, "dern</w>": 30086, "kaplan</w>": 37401, "careless</w>": 47325, "wto</w>": 36406, "powerpoint</w>": 38940, "enei</w>": 48906, "ecu</w>": 32919, "autoimmune</w>": 45509, "gmbh</w>": 46877, "vanuatu</w>": 48766, "lieu</w>": 35313, "chatham</w>": 32030, "nyo</w>": 44586, "robb": 14059, "zin": 14085, "apocaly": 13932, "carlos</w>": 9538, "\u010d": 201, "tokyo": 35038, "eigh": 13468, "wanna</w>": 3836, "answering</w>": 18280, "quaker</w>": 43395, "brew</w>": 7253, "abel</w>": 25318, "ands</w>": 32257, "quel": 39774, "melancholy</w>": 47821, "loe</w>": 25484, "salim</w>": 42760, "\u00f0\u0141\u013a\u012f\u00f0\u0141\u013a\u012f\u00f0\u0141\u013a\u012f\u00f0\u0141\u013a\u012f\u00f0\u0141\u013a\u012f</w>": 32078, "barbarian</w>": 42530, "leban": 9360, "tford</w>": 22493, "tter</w>": 5165, "enya</w>": 36509, "lollipop</w>": 34605, "\u00f0\u0141\u0134\u013f</w>": 22002, "wsu</w>": 32913, "fishing": 31703, "stardust</w>": 34337, "adon": 25907, "bunting</w>": 30695, "burton": 42354, "pod</w>": 7446, "speechless</w>": 23152, "marketers</w>": 23682, "fromthe": 18756, "race": 10978, "sio</w>": 10807, "nga</w>": 35477, "\u00e3\u0124\u00b8\u00e3\u0125": 43491, "deport": 23389, "cilantro</w>": 34568, "carb</w>": 21379, "ambitions</w>": 34152, "vienna</w>": 12670, "gonzales</w>": 31265, "reservation</w>": 20289, "cha</w>": 4541, "\u00d8\u00b2": 36169, "klein</w>": 17579, "alda</w>": 46440, "helpless</w>": 47638, "freshest</w>": 46809, "mario</w>": 7600, "dir": 4251, "respiratory</w>": 24483, "indiana</w>": 8615, "cial</w>": 1143, "grandparents</w>": 21311, "gravy</w>": 21225, "laguna</w>": 23609, "steen": 42851, "moms": 28446, "rebate</w>": 43817, "shipwreck</w>": 48878, "route</w>": 5261, "cec": 29694, "brews</w>": 21663, "mu</w>": 6411, "turismo</w>": 30202, "kidlitart</w>": 41600, "morn</w>": 22393, "neighbor": 7759, "startups</w>": 9056, "bacter": 11814, "pode": 33368, "heater</w>": 23246, "tmc</w>": 35263, "griezmann</w>": 48396, "makeyourownlane</w>": 34823, "hugging</w>": 27058, "deen</w>": 12912, "ves</w>": 1003, "lexi</w>": 24679, "kka</w>": 19002, "masking</w>": 47046, "ped</w>": 2966, "consider": 12471, "gore</w>": 17872, "being": 13481, "?!?!?</w>": 37619, "uto</w>": 13683, "procra": 25361, "glowing</w>": 18437, "ump": 22224, "rave": 38784, "alwx</w>": 32768, "okanagan</w>": 43233, "guildford</w>": 34450, "ttt</w>": 17256, "hobby": 41120, "hop</w>": 5833, "\u0137": 243, "negan</w>": 42623, "doubling</w>": 36850, "dulil": 32565, "potat": 5975, "mee": 1725, "driveway</w>": 26273, "event": 10612, "rstats</w>": 38700, "inger</w>": 3541, "flux</w>": 25249, "boiling</w>": 32019, "distinctive</w>": 25486, "pharo": 42308, "mankind</w>": 24155, "fass": 42398, "merit</w>": 20830, "oceans</w>": 16792, "ingthe": 20170, "br</w>": 7532, "disin": 19484, "kj": 27385, "copd</w>": 45876, "former</w>": 2276, "drif": 33585, "\u00e2\u013f\u0139</w>": 29079, "zachary</w>": 32401, "alastair</w>": 42062, "limo</w>": 33166, "tsunami</w>": 24286, "compromising</w>": 45436, "eliminating</w>": 36619, "cope": 47635, "sum</w>": 8257, "centres</w>": 19354, "vevo</w>": 35141, "heels</w>": 10909, "nais": 46396, "xiumin</w>": 36563, "brow": 6547, "spider</w>": 7622, "melrose</w>": 36296, "est</w>": 1509, "jj": 12502, "kja": 41048, "bee": 6097, "ramone</w>": 47201, "subram": 49207, "pud": 39234, "istandwith": 33820, "caesars</w>": 42162, "dawg</w>": 18660, "broadway": 34599, "an</w>": 550, "escence</w>": 37972, "shorts</w>": 9680, "dler</w>": 40279, "wilder": 14343, "wright": 28616, "atr</w>": 43247, "hae": 30723, "hornet</w>": 28739, "billings</w>": 43615, "tiene</w>": 43438, "bullies</w>": 39050, "lery</w>": 38184, "aj": 3990, "pooja</w>": 35676, "dont</w>": 4632, "stuart": 32054, "visualization</w>": 28500, "led": 8767, "gations</w>": 33906, "ciao</w>": 37677, "stickers</w>": 11613, "ohmy": 29758, "tham</w>": 8896, "lest</w>": 6794, "slideshow</w>": 42817, "mong</w>": 43566, "furnace</w>": 31913, "narendramodi</w>": 9853, "bangla</w>": 45928, "survivor": 31934, "\u00f0\u0141\u0135\u00ba</w>": 10450, "gerard": 35979, "law": 2874, "training</w>": 2199, "joined</w>": 4954, "\u00c2\u00bd</w>": 33613, "wap</w>": 30368, "hydrating</w>": 47653, "precisely</w>": 34954, "accountants</w>": 37222, "drac": 20168, "includes</w>": 6197, "sively</w>": 10343, "ssler</w>": 30287, "unreleased</w>": 29654, "brea</w>": 46538, "remo": 4064, "zola</w>": 46105, "takeme": 41748, "\u00a6\u012a</w>": 47615, "looking</w>": 1312, "beta</w>": 9505, "afp</w>": 18311, "receiver</w>": 17659, "limer": 16915, "idols</w>": 21398, "bingo</w>": 18418, "alife": 41347, "shenko</w>": 39751, "erotic</w>": 30708, "air</w>": 1922, "sidd": 19842, "-></w>": 5081, "beams</w>": 23993, "skybet": 45540, "bully": 43111, "dayweekend</w>": 44526, "serial</w>": 14216, "bide</w>": 45178, "newmusic": 32510, "highlight</w>": 8264, "gene": 5822, "\u00f0\u0141\u0134\u012b": 44316, "kol": 7142, "tan</w>": 5039, "nebula</w>": 22532, "dag": 11434, "zero</w>": 5848, "grunge</w>": 33745, "brock</w>": 16745, "!!!!!!!!!</w>": 28560, "do</w>": 818, "dru": 2275, "haze</w>": 22785, "measurable</w>": 48010, "then</w>": 1594, "merely</w>": 28718, "influenced</w>": 21183, "ethno": 34225, "customized</w>": 23229, "frost</w>": 11619, "swild</w>": 38696, "raviol": 41104, "aidan": 48814, "lineups</w>": 33589, "[</w>": 314, "q</w>": 336, "masala</w>": 31483, "granddaughter</w>": 29460, "pensacola</w>": 33573, "invali": 31592, "dual": 39739, "chinese</w>": 4271, "shaikh</w>": 45712, "bao</w>": 20408, "poached</w>": 27665, "lexi": 44231, "illo</w>": 7588, "pse</w>": 5423, "nigh</w>": 48157, "gues": 39971, "statu": 32481, "witz": 44186, "creams</w>": 41447, "racists</w>": 41777, "comprehen": 12050, "atime</w>": 20158, "\u00ed\u012d": 34350, "janice</w>": 36048, "clothing</w>": 7425, "rubber": 31131, "beli</w>": 45842, "atrium</w>": 29725, "fell</w>": 6266, "det</w>": 15366, "berty</w>": 35973, "drama</w>": 5055, "tmltalk</w>": 42260, "lettuce</w>": 18573, "abbott</w>": 15649, "spartans</w>": 20457, "covert</w>": 40134, "lean</w>": 8208, "\u00f0\u0141\u0134\u013c\u00f0\u0141\u0134\u013d</w>": 41232, "snag</w>": 28043, "fayetteville</w>": 37771, "righteous</w>": 28169, "twitch</w>": 9153, "wellington</w>": 15389, "matches</w>": 8609, "tesla</w>": 12254, "alexis": 35023, "frameworks</w>": 43136, "oms</w>": 3770, "hate": 23546, "wineoclock</w>": 43846, "sabotage</w>": 40496, "sailor": 28002, "ofthe": 7592, "gables</w>": 40928, "regulatory</w>": 17717, "\u00f0\u0141\u013a\u012c": 4692, "joshua</w>": 11852, "tweeter</w>": 32876, "reasonably</w>": 38589, "sacrificing</w>": 48146, "pier": 5641, "sportsnet</w>": 34144, "albania</w>": 29170, "recruits</w>": 22647, "\u00f0\u0141\u0134\u0125\u00f0\u0141\u0134\u0125": 28041, "ovarian</w>": 42913, "mean</w>": 3450, "rests</w>": 33775, "sandals</w>": 20731, "perpetual</w>": 32018, "nato</w>": 13139, "particles</w>": 27012, "lounge</w>": 7141, "poke</w>": 23186, "plor": 34695, "clay</w>": 8823, "bullion</w>": 49114, "census</w>": 23677, "ador</w>": 9162, "dead": 3906, "nominations</w>": 17124, "kiel</w>": 25509, "poole</w>": 26290, "gr": 709, "liqueur</w>": 43612, "agues</w>": 7000, "temporarily</w>": 23189, "amrit": 33849, "lawrence</w>": 8820, "predicting</w>": 30414, "strom</w>": 14707, "specialized</w>": 23265, "bered</w>": 9193, "call": 7950, "lays</w>": 19546, "anderson</w>": 6510, ").</w>": 1818, "privileg": 18015, "worldcup</w>": 8650, "superman</w>": 11237, "lia</w>": 6964, "swamp": 41953, "scrap</w>": 21695, "kerr</w>": 20491, "patricks</w>": 46783, "mington": 49283, "bday": 33022, "dyssey</w>": 17435, "choral</w>": 26684, "steak": 26955, "progno": 46070, "smar": 3201, "winkle</w>": 36430, "lange</w>": 32021, "calorie</w>": 32679, "shock": 19617, "azzo</w>": 26779, "inu": 21131, "dding": 48101, "pinst": 41173, "scoo": 14199, "approxim": 14201, "ze</w>": 1298, "sightings</w>": 30004, "></w>": 285, "lok": 19908, "snowball</w>": 39254, "calam": 28841, "arsene</w>": 32117, "appearing</w>": 18759, "tower</w>": 4730, "middlesex</w>": 39154, "scenes</w>": 5415, "lifts</w>": 18291, "large</w>": 3638, "herbali": 44087, "oi": 27357, "survi": 3440, "halle": 27763, "humphrey</w>": 31549, "fink</w>": 40158, "afan": 47474, "noble": 29430, "abnormal</w>": 40934, "lgbt</w>": 9592, "disgrace</w>": 29877, "siam": 29686, "podcasting</w>": 40106, "neur": 19001, "urable</w>": 40194, "summit</w>": 3768, "magnitude</w>": 22955, "giggs</w>": 44692, "distances</w>": 37078, "paign</w>": 31796, "hips</w>": 30191, "samaritan</w>": 45495, "daredevil</w>": 28849, "tid</w>": 23727, "dahl": 45816, "blackandwhitephotography</w>": 27544, "\u00e0\u00b8\u0139</w>": 36171, "sponsor": 10424, "stoked</w>": 13160, "iction</w>": 40560, "martial</w>": 17088, "lop": 36734, "malik</w>": 11394, "interpretation</w>": 20652, "terminology</w>": 48896, "calum</w>": 16405, "remodeling</w>": 41432, "wal</w>": 6903, "homo": 18129, "pine</w>": 7374, "rumb": 42432, "excel": 28351, "hybri": 9084, "ano": 5617, "undercover</w>": 21595, "depic": 11307, "kel": 2825, "uphold</w>": 43897, "\u00f0\u0141\u0129\u00aa</w>": 12331, "lel</w>": 46623, "wedd": 7576, "monarchy</w>": 47503, "bungal": 29549, "hams</w>": 25619, "ourt</w>": 22960, "allin</w>": 22395, "yemen": 29276, "\u00f0\u0141\u013a\u012f\u00f0\u0141\u013a\u012f\u00f0\u0141\u013a\u012f\u00f0\u0141\u013a\u012f": 16603, "sprints</w>": 36404, "estas</w>": 39072, "hearts</w>": 5516, "womanin": 30562, "cil</w>": 2998, "\u00f0\u0141\u0131\u00bb\u00e2\u0122\u012f\u00e2\u013b\u0122\u00ef\u00b8\u0131": 48391, "gavin": 32974, "referendum</w>": 16732, "steal": 37070, "fallout</w>": 16009, "iam": 3579, "property</w>": 5043, "baby": 7268, "reck": 11715, "hugs</w>": 14248, "accompan": 14746, "tents</w>": 30730, "repost": 33147, "functional</w>": 12885, "fence</w>": 12679, "dvn</w>": 29811, "rani</w>": 22631, "happyhalloween</w>": 28750, "\u00f0\u0141\u0129\u00ba</w>": 17467, "tombstone</w>": 45729, "edd</w>": 35431, "orleans</w>": 11127, "complained</w>": 42029, "\u00e2\u013b\u00a5": 4622, "asdf": 36857, "argos</w>": 37443, "gordo</w>": 47707, "fancafe</w>": 45080, "callaway</w>": 42596, "\u012d\u00e3\u0123": 36218, "ser": 803, "jama": 8977, "geof": 20629, "programs</w>": 7345, "walsh</w>": 12856, "rafi": 35304, "aly": 6468, "sni</w>": 35570, "teria</w>": 22685, "motorsport</w>": 18371, "susan</w>": 10168, "indicated</w>": 39416, "\u00e5\u00a4": 23170, "\u00e0\u00af": 11259, "bogo</w>": 35769, "\u00f0\u0141\u0134\u0136</w>": 10704, "philly": 19545, "sets</w>": 4650, "uts</w>": 11740, "tribune</w>": 18556, "scour": 46172, "ruling</w>": 14690, "ient</w>": 13115, "maknae</w>": 44118, "ppm</w>": 42053, "extraction</w>": 28789, "tunes</w>": 10810, "heifer</w>": 48219, "lah</w>": 4299, "news": 6216, "\u00f0\u0141\u0129\u00aa\u00f0\u0141\u0129": 13917, "usnews</w>": 43752, "scheer</w>": 26776, "flower</w>": 4055, "emperor</w>": 13828, "skincare</w>": 12648, "toria</w>": 23732, "irani</w>": 37984, "ravens</w>": 17946, "ulous</w>": 4281, "uniting</w>": 31318, "waka</w>": 42696, "maru": 37413, "annihil": 32734, "illage</w>": 48922, "onom": 48014, "casu": 15345, "avian</w>": 24115, "pay</w>": 3345, "shum": 37383, "dres": 48852, "swag</w>": 8177, "\u00ea\u00b3": 36216, "cornwall</w>": 10777, "dw</w>": 19997, "rescheduled</w>": 43553, "totten": 14360, "soe": 44136, "shana</w>": 44835, "rust</w>": 14212, "stamina</w>": 48753, "potd</w>": 28765, "ladybug</w>": 40038, "tripod</w>": 36141, "sus": 8091, "rape</w>": 10070, "stealing</w>": 14242, "locks</w>": 13212, "articho": 30937, "diet": 21295, "ocd</w>": 35904, "michel</w>": 17153, "finalist</w>": 12620, "reel": 34467, "cuties</w>": 23420, "lead</w>": 2784, "industrial": 30853, "..!</w>": 17994, "windmill</w>": 34084, "present</w>": 2881, "crabs</w>": 30908, "kaufman</w>": 37188, "seal</w>": 10159, "dist</w>": 12116, "atro": 18724, "lifeat": 27801, "scotti": 6227, "vian": 40487, "kristi": 26895, "ferdin": 25541, "~!</w>": 31181, "climbs</w>": 29098, "erina</w>": 25176, "aging</w>": 4336, "pal": 1850, "lisa": 25236, "guys</w>": 1791, "allows</w>": 9966, "pret": 9652, "aish": 21946, "littlemix</w>": 29731, "adrienne</w>": 40081, "lottie</w>": 48517, "splend": 29861, "cannon</w>": 15661, "adder</w>": 47557, "bur": 1039, "....": 2386, "casper</w>": 35892, "memoir</w>": 20532, "lege</w>": 8065, "cheon</w>": 11498, "csrracing</w>": 44193, "bly": 20930, "naval</w>": 13273, "oftball</w>": 39768, "binge</w>": 22600, "aware": 4427, "philippines</w>": 8149, "dubbed</w>": 27740, "desserts</w>": 22948, "encounters</w>": 25399, "stry": 17325, "airways</w>": 14299, "natal</w>": 28516, "displa": 9326, "rans</w>": 46259, "japs</w>": 42121, "camouflage</w>": 29049, "\u00eb\u0124\u013a": 48484, "styling</w>": 14597, "\u00e2\u00ac\u0129\u00ef\u00b8\u0131</w>": 13984, "fp</w>": 8941, "gettys": 35189, "humbling</w>": 39757, "imin": 23942, "jura": 14715, "vod": 11820, "cruising</w>": 19743, "mst</w>": 26335, "bluebird</w>": 40747, "set</w>": 1167, "scene</w>": 3562, "__": 2355, "gah</w>": 27750, "candle</w>": 12674, "+</w>": 266, "kruger</w>": 32948, "nighttime</w>": 38147, "rav</w>": 23606, "lorraine</w>": 27602, "ious</w>": 6994, "housemusic</w>": 28468, "canelo</w>": 43210, "euve</w>": 40652, "omni": 18793, "exhibition</w>": 4219, "\u00ec\u013f": 8276, "must": 6783, "candy</w>": 6417, "poisonous</w>": 37131, "itta</w>": 21233, "stuns</w>": 43796, "hairy</w>": 26513, "steel": 6938, "schwarz": 27074, "douglass</w>": 45692, "melts</w>": 31446, "changed</w>": 4907, "hz</w>": 32533, "mau</w>": 23033, "enable</w>": 15642, "itunes</w>": 7007, "trust</w>": 3876, "see</w>": 862, "smg</w>": 46876, "nytimes</w>": 13772, "kathle": 18721, "sold</w>": 3939, "methyl": 48999, "wye": 48436, "laz": 18806, "colon</w>": 29050, "socialmediamarketing</w>": 31790, "\u00f0\u0141\u0136\u00a5": 3191, "shies</w>": 35312, "salmon": 37040, "love": 2618, "rinse</w>": 48320, "suffering</w>": 10140, "iv": 6775, "omination</w>": 42571, "guard</w>": 4901, "artsy</w>": 31588, "kita</w>": 29961, "buffett</w>": 34081, "jo</w>": 3804, "josel": 47800, "bandwagon</w>": 36432, "buon</w>": 48498, "clayton": 46445, "believers</w>": 28434, "loneliness</w>": 30310, "anistan</w>": 9727, "artifacts</w>": 30249, "demdebate</w>": 43973, "fx</w>": 9025, "rocknroll</w>": 27840, "flyer</w>": 11875, "hourly</w>": 30918, "abo</w>": 21861, "bkk</w>": 36433, "bhi": 28943, "xii</w>": 36525, "pinterest</w>": 15379, "compos": 7783, "ilay": 45093, "\u00f0\u0141\u00a5\u0129": 34372, "fg": 45977, "peninsula</w>": 14070, "welcomed</w>": 12590, "strangers</w>": 20684, "looks</w>": 1606, "pauls": 41413, "eyed</w>": 15512, "continually</w>": 34086, "gra": 782, "bentley</w>": 16859, "ain": 8326, "announcement</w>": 6932, "clare": 18948, "salam</w>": 33963, "insec": 15744, "yolanda</w>": 43845, "backgrounds</w>": 28215, "uranium</w>": 29850, "brussels</w>": 11020, "dhanush</w>": 36200, "stack</w>": 11257, "schul": 14945, "\u00bb": 119, "tsla</w>": 35681, "affect</w>": 11361, "maru</w>": 31838, "\u00e2\u0125\u00a3</w>": 3076, "gali</w>": 30552, "youth</w>": 3281, "bloody</w>": 9468, "evel": 39315, "gaelic</w>": 31173, "trish</w>": 37179, "nuestro</w>": 38590, "photoshoot</w>": 11121, "contents</w>": 14850, "adolescent</w>": 36793, "ssal</w>": 35936, "yyyyyy</w>": 47055, "phine</w>": 40985, "organics</w>": 44199, "anca</w>": 14583, "billion": 14520, "honi</w>": 17918, "\u00f0\u0141\u013a\u0124\u00f0\u0141\u013a\u0124\u00f0\u0141\u013a\u0124\u00f0\u0141\u013a\u0124</w>": 11522, "eco</w>": 10077, "ssl</w>": 32195, "city": 5002, "renamed</w>": 31535, "alin</w>": 40063, "mediter": 14194, "umc</w>": 39491, "caul": 23460, "bee</w>": 5028, "devastated</w>": 29865, "leges</w>": 15356, "deserved</w>": 10061, "bun": 2591, "iow": 7439, "butter": 5427, "\u00e0\u00b9\u0129</w>": 38699, "holden</w>": 21869, "meadow</w>": 17195, "oates</w>": 47094, "lic</w>": 3376, "luxury": 12083, "stump</w>": 32064, "\u00c3\u00a3o</w>": 21141, "grandpa</w>": 14582, "is": 595, "taunton</w>": 40681, "scoreboard</w>": 30104, "iver": 36849, "pleasing</w>": 32893, "exclu": 3114, "saut\u00c3\u00a9": 36290, "thunt</w>": 46763, "lib</w>": 13345, "tita</w>": 40936, "acknowledged</w>": 35913, "parish</w>": 13020, "happythanksgiving</w>": 40593, "wonka</w>": 43463, "illegal</w>": 7983, "],</w>": 34067, "decorate</w>": 23651, "provi": 2289, "athletes</w>": 7125, "toppers</w>": 41651, "automation</w>": 12328, "why": 11040, "tyler</w>": 7058, "sli</w>": 44824, "gren": 13941, "mba</w>": 8329, "troops</w>": 10109, "opinion</w>": 7843, "arag": 41502, "acquire</w>": 21576, "hutto": 27662, "discount</w>": 7638, "railway": 27614, "scra": 11187, "pivo": 18009, "unlock</w>": 18649, "tba</w>": 34363, "rms</w>": 40529, "adilla</w>": 41167, "\u00f0\u0141\u0134\u0139\u00f0\u0141\u0134\u0139": 47158, "cohort</w>": 22782, "icion": 45905, "ypg</w>": 37386, "felony</w>": 31068, "jang": 41526, "\u00c2\u00ab</w>": 14434, "cfb</w>": 32931, "imagine</w>": 4826, "forest": 18760, "reg</w>": 12353, "comparisons</w>": 40870, "networks</w>": 10004, "listened</w>": 15347, "pei": 48166, "bau</w>": 34840, "shear</w>": 32108, "roanoke</w>": 36587, "lukas</w>": 37941, "olympus</w>": 30960, "memorial": 16285, "navy</w>": 5598, "cli": 1503, "execs</w>": 35728, "poured</w>": 26621, "ado</w>": 2933, "handy</w>": 13479, "wetlands</w>": 26547, "psychiatric</w>": 30578, "homemade</w>": 7889, "foxx</w>": 32993, "ern": 6992, "liver": 4755, "wolverhampton</w>": 34518, "nal</w>": 3119, "til": 6124, "ingredient</w>": 19799, "emil</w>": 40624, "citadel</w>": 38036, "isback</w>": 43811, "alek</w>": 43310, "wells": 42705, "eighth</w>": 21237, "springtraining</w>": 49364, "gladly</w>": 41598, "primary": 35024, "professionals</w>": 10165, "ubun": 28184, "pup": 11926, "delegates</w>": 14623, "blanchard</w>": 40177, "eira</w>": 47708, "txhsfb</w>": 34757, "helle": 48600, "michelangelo</w>": 41245, "cn</w>": 16200, "minogue</w>": 44202, "cudd": 12820, "blog": 16376, "\u00d1\u0122\u00d0\u00b8": 41092, "mab</w>": 35639, "heartwarming</w>": 34080, "coim": 41528, "techcrunch</w>": 42110, "\u00f0\u0141\u0134\u00a8": 27408, "charger</w>": 13090, "psy</w>": 11056, "pa": 765, "rundown</w>": 41100, "scal": 10859, "aussie": 40230, "yofficial</w>": 21818, "lambda</w>": 36687, "boyd</w>": 18295, "lockdown</w>": 35636, "safetyfirst</w>": 43608, "bv": 18958, "accepted</w>": 9159, "artwit</w>": 36713, "precise</w>": 24457, "yellow": 12059, "abyss</w>": 33632, "goode</w>": 42076, "\u00f2": 174, "vo": 947, "mntwins</w>": 45448, "flare</w>": 21185, "doun</w>": 44785, "atrocities</w>": 37551, "auschwitz</w>": 36523, "thenew": 24212, "steen</w>": 18625, "quirky</w>": 25044, "tright</w>": 29915, "tomo</w>": 34434, "captivity</w>": 41141, "activate</w>": 26737, "disci": 9559, "pineapple</w>": 14831, "\u00f0\u0141\u0134\u0125": 9947, "go": 650, "tinted</w>": 42618, "shrek</w>": 35009, "ites</w>": 2454, "\u0132</w>": 494, "despic": 32442, "neuroscience</w>": 23381, "typic": 21648, "graphics</w>": 9492, "ppery</w>": 27833, "zol": 25939, "funds</w>": 7066, "kevin": 9419, "bea</w>": 20925, "monterey</w>": 23388, "workplaces</w>": 47383, "\u00e2\u013f\u00a4\u00e2\u013f\u00a4\u00e2\u013f\u00a4\u00e2\u013f\u00a4": 37918, "hdd</w>": 40508, "forwar": 34364, "happier</w>": 14118, "samson</w>": 34659, "day</w>": 575, "perfume</w>": 17525, "deg</w>": 38498, "mullen</w>": 30797, "flag": 11536, "moy</w>": 34205, "shinde</w>": 41516, "growers</w>": 25689, "olim": 47769, "casc": 36714, "meal": 29662, "mask</w>": 8306, "qantas</w>": 43250, "alta</w>": 25378, "genre</w>": 14249, "passports</w>": 46368, "sages</w>": 25979, "icy</w>": 3495, "through</w>": 1417, "santor": 28448, "stake": 15955, "\u00f0\u0141\u0133\u012f\u00f0\u0141\u0131\u00bb": 25803, "atec": 37352, "ambrose</w>": 24253, "winged</w>": 24993, "chesney</w>": 48747, "alar": 34333, "tit</w>": 13202, "fried</w>": 7310, "\u00f0\u0141\u0133\u0131\u00f0\u0141\u0131\u00bd</w>": 33978, "magic": 13061, "owen</w>": 12056, "standings</w>": 19835, "\u00f0\u0141\u012e\u0132</w>": 33071, "troubad": 49037, "throwback</w>": 5058, "ayy</w>": 32514, "yu</w>": 8887, "asf</w>": 25863, "futsal</w>": 20558, "crossed</w>": 11731, "toxic": 27436, "rishi": 48434, "ote": 28511, "transplant": 41871, "pg</w>": 5211, "chum": 46869, "agua</w>": 18482, "beachlife</w>": 43824, "recreational</w>": 24329, "abbo": 13536, "simple</w>": 4129, "mughal</w>": 37508, "\u00eb\u00b0\u00a9\u00ed\u0125\u0126": 25641, "childish</w>": 31939, "akhilesh</w>": 48495, "graphene</w>": 38387, "kicking</w>": 7802, "cement</w>": 4369, "fergus</w>": 42041, "bom</w>": 19469, "gabi</w>": 41931, "islands</w>": 7145, "dov</w>": 38856, "relationships</w>": 10610, "amily</w>": 36732, "'m</w>": 880, "miri": 22273, "fertil": 41987, "anos</w>": 20132, "mimic</w>": 46519, "mighty": 26632, "upwards</w>": 34915, "aver</w>": 11403, "blers</w>": 26930, "blackandwhite": 23688, "swift": 34843, "nostal": 12076, "bruno</w>": 14568, "ended</w>": 2622, "harbour": 35430, "waller</w>": 45340, "jakob</w>": 47358, "certain": 8526, "cas": 1671, "porta</w>": 45037, "frankly</w>": 38015, "nsi": 47824, "outsiders</w>": 41742, "exper": 1533, "collab</w>": 14013, "prawns</w>": 34903, "valeri": 31951, "disgusted</w>": 41977, "refriger": 21076, "kpmg</w>": 38243, "cpl</w>": 26852, "dull</w>": 19433, "insur": 5024, "speeds</w>": 22017, "audible</w>": 33227, "commend": 37555, "cooperative</w>": 24517, "leys": 45609, "dartmoor</w>": 31477, "whelan</w>": 40715, "imam": 37552, "\u013a</w>": 502, "adap": 6341, "dato</w>": 36075, "snorkeling</w>": 48103, "handmade</w>": 6737, "ffen</w>": 46537, "deeplearning</w>": 24362, "opportunity</w>": 4004, "yyy</w>": 11514, "bethan": 18781, "vivo": 28091, "store": 17769, "manufactured</w>": 24010, "ryder": 43564, "brin": 25620, "wildcat": 49077, "biceps</w>": 46735, "\u00f0\u0141\u0134\u013c</w>": 6521, "oosa</w>": 30834, "mass</w>": 4854, "ported</w>": 16879, "forefront</w>": 37679, "beren": 33654, "kine": 17607, "peeling</w>": 48649, "indicates</w>": 29412, "minneapolis</w>": 16977, "premi": 2413, "cken": 25566, "ironically</w>": 36779, "intan": 47695, "daener": 46934, "\u00f0\u0141\u0132\u00b6</w>": 10631, "forte</w>": 27367, "teessi": 43295, "crank": 46246, "stitches</w>": 32360, "sending</w>": 6985, "kiel": 40940, "right</w>": 1155, "uke</w>": 28577, "och": 29334, "drawing</w>": 3610, "madden</w>": 19093, "realestate</w>": 6569, "eic": 40251, "specul": 19209, "bacher</w>": 49211, "everest</w>": 21722, "rays</w>": 11064, "moment</w>": 2495, "builders</w>": 17694, "vandy": 39268, "aluminum</w>": 15251, "athy</w>": 13183, "premier</w>": 5539, "gey</w>": 29289, "vin</w>": 2558, "jordan": 14644, "sian": 28510, "deepi": 19371, "stay": 4714, "aji</w>": 21153, "tau": 6620, "theater": 39438, "donnie": 47058, "rode</w>": 18449, "icu</w>": 30443, "obe": 11897, "imp": 3335, "applicable</w>": 37927, "bbcspringwatch</w>": 37358, "permit</w>": 21950, "rv</w>": 17951, "excu": 7324, "ghoshal</w>": 49134, "I</w>": 296, "tors</w>": 2546, "entre</w>": 19600, "townfc</w>": 33981, "\u00ab": 104, "get</w>": 779, "johann</w>": 31180, "capitalist</w>": 37015, "dismissed</w>": 30087, "tbc</w>": 31807, "zombie</w>": 11819, "\u00f0\u0141\u013a\u0143\u00f0\u0141\u013a\u0143\u00f0\u0141\u013a\u0143</w>": 13116, "azcardinals</w>": 48846, "luck</w>": 2820, "learner</w>": 33547, "atle": 21170, "promote": 47384, "getty</w>": 13965, "balloon</w>": 13634, "weer</w>": 32491, "ange</w>": 3039, "trum": 11766, "________": 9549, "eazy</w>": 36536, "adrid</w>": 26562, "\u00f0\u0141\u0129\u00a9\u00f0\u0141\u0129": 36350, "poppins</w>": 41216, "ass</w>": 5301, "bano</w>": 42947, "\u00f0\u0141\u0133\u012e\u00f0\u0141\u0131\u00bc</w>": 20031, "sindh</w>": 20754, "blissful</w>": 42145, "abhishek</w>": 44502, "ologists</w>": 30912, "hilari": 7784, "jad</w>": 38691, "doherty</w>": 31774, "shal": 15056, "elm": 25199, "fiber": 35074, "ells</w>": 2433, "hamstring</w>": 39990, "eshopsuk</w>": 39349, "plating</w>": 44564, "helsin": 17842, "aint</w>": 13099, "sheds</w>": 25921, "respected</w>": 19126, "year": 5163, "structuring</w>": 37496, "\u00f0\u0141\u013a\u0122": 12832, "mcgr": 25169, "\u00e0\u00b9\u012a</w>": 11722, "character": 10997, "wonders</w>": 14048, "designers</w>": 12720, "seis": 25559, "mouse</w>": 9301, "glu</w>": 32281, "therese</w>": 47996, "ingham</w>": 4291, "button</w>": 8007, "standout</w>": 23131, "artes</w>": 48629, "soybeans</w>": 40840, "tly</w>": 1646, "k</w>": 330, "grabs</w>": 17076, "loc</w>": 25826, "skar": 27587, "\u00f0\u0141\u0134\u013c": 8102, "\u00f0\u0141\u00a4\u0143</w>": 47289, "truths</w>": 27179, "mastered</w>": 32616, "\u00fe": 186, "herb": 26116, "helen": 17576, "foursquare</w>": 34484, "sue</w>": 6641, "ultimatefan": 48372, "study</w>": 3123, "emer": 3132, "kies</w>": 4993, "theri": 28967, "bologna</w>": 27513, "pushaw": 35407, "delta": 32250, "choreo": 17443, "excelsi": 47315, "waterfalls</w>": 26692, "syndrome</w>": 10927, "anniver": 29671, "unidenti": 33707, "\u00f0\u0141\u013a\u0123\u00f0\u0141\u013a\u0123</w>": 19213, "nvidia</w>": 27325, "pion": 36728, "fresh</w>": 2975, "mc</w>": 4126, "hoo</w>": 7920, "affir": 25343, "burgh": 18141, "stratford</w>": 23955, "aux": 18154, "producer</w>": 7064, "consume</w>": 28919, "\u00ec\u012c\u00a4": 20305, "caller</w>": 30666, "born</w>": 2683, "sl": 2621, "redon": 48506, "assistance</w>": 11685, "dundal": 38185, "monet</w>": 24499, "tait</w>": 45325, "luminous</w>": 37913, "adopts</w>": 40853, "ravi": 22947, "reunite</w>": 26179, "touchdown</w>": 18664, "vely</w>": 1708, "worlden": 44668, "avoid</w>": 5983, "craft": 7717, "starbucks</w>": 9499, "popular</w>": 4368, "endings</w>": 36516, "bobo</w>": 38939, "steven</w>": 8016, "required</w>": 8500, "pies</w>": 6898, "ouf</w>": 34618, "kubrick</w>": 37032, "inglis</w>": 46327, "nh": 3760, "paws</w>": 16714, "psa</w>": 14031, "coon": 34260, "camp": 2854, "cng</w>": 41496, "town</w>": 1605, "messy</w>": 15987, "sticking</w>": 21021, "narcis": 25229, "maging</w>": 41310, "mcdonalds</w>": 17674, "mysore</w>": 44924, "reinforced</w>": 41909, "ringer</w>": 35761, "shirts</w>": 5803, "opath": 33079, "naom": 34955, "delec": 38615, "farra": 33657, "siemens</w>": 30147, "terrori": 6836, "++</w>": 19056, "mav": 25697, "chine": 4013, "batch</w>": 9413, "buzzer</w>": 38064, "combustion</w>": 44654, "cream</w>": 3867, "sheffield": 41763, "vay": 48000, "instalment</w>": 47766, "daw": 5971, "jil": 36225, "hoy": 39625, "annah": 39166, "enhances</w>": 38259, "stra</w>": 6253, "lao": 32475, "lyon</w>": 17176, "mastery</w>": 34800, "stored</w>": 28257, "arjun</w>": 20477, "combine</w>": 12919, "ascension</w>": 35499, "azer": 19169, "passages</w>": 48937, "stopping</w>": 10735, "percussion</w>": 23980, "vv": 19264, "eleven": 31617, "aat": 34018, "kristen</w>": 16644, "yosemite</w>": 25893, "opt": 45103, "strate": 3532, "reza</w>": 35888, "sacrifice</w>": 12556, "foss": 14240, "yev</w>": 39855, "|#</w>": 31183, "kori</w>": 42842, "pearls</w>": 19581, "badge</w>": 11301, "peel": 34386, "serve": 39202, "warner</w>": 13402, "dairy</w>": 10302, "crunchy</w>": 31366, "juan</w>": 9274, "eld</w>": 5684, "ika</w>": 18188, "unk</w>": 5542, "amr</w>": 30916, "irandeal</w>": 46533, "versary</w>": 2940, "rhythmic</w>": 46386, "jellyfish</w>": 30988, "illumin": 11446, "dy</w>": 907, "groove</w>": 17680, "electrifying</w>": 48843, "critic</w>": 19361, "rochdale</w>": 41880, "ing": 653, "consultation</w>": 15777, "infront</w>": 37668, "cham</w>": 19951, "gifs</w>": 37643, "endocr": 36486, "aches</w>": 14823, "arina</w>": 29271, "fridaythe</w>": 47642, "naz</w>": 35534, "ska</w>": 7495, "iron</w>": 5391, "azine</w>": 29140, "jenkins</w>": 16162, "dobson</w>": 46888, "\u0142\u012a": 43364, "bel": 1308, "bankrupt</w>": 37288, "aman": 19890, "texted</w>": 29004, "zl</w>": 39168, "pumping</w>": 25150, "steroids</w>": 37670, "indigo</w>": 21002, "pamela</w>": 26991, "golfer</w>": 24579, "drooling</w>": 44360, "m\u00c3\u00a9xico</w>": 46159, "tttt</w>": 33119, "empire</w>": 7614, "tian</w>": 8125, "ethiop": 10897, "shell</w>": 6648, "cer": 1364, "kidnapp": 16183, "fom": 34540, "rego</w>": 47351, "cityscape</w>": 40808, "--></w>": 6422, "herald": 27625, "legs</w>": 7072, "so</w>": 706, "knives</w>": 20910, "\u00e5\u00ae": 27047, "seye</w>": 35604, "bulb</w>": 22373, "unitedway": 47486, "pointless</w>": 33586, "oney</w>": 9408, "brutal": 42144, "schizoph": 40004, "acupuncture</w>": 40043, "stig</w>": 42551, "copernic": 45519, "fue</w>": 43723, "mahatma</w>": 40530, "stellen": 42754, "emoji</w>": 16327, "kwame</w>": 46681, "engineers</w>": 11494, "contrac": 7581, "dro": 1494, "iu</w>": 15575, "euro</w>": 8463, "\u00b7</w>": 371, "joins</w>": 5681, "\u00ec\u012a": 32757, "loaf</w>": 18273, "viz": 28251, "rilla</w>": 18685, "bati</w>": 37589, "nz": 10142, "stranger</w>": 14149, "\u00f0\u0141\u0132\u012c</w>": 43974, "hardship</w>": 45085, "cels</w>": 24021, "onstage</w>": 21821, "johns</w>": 14515, "triathlon</w>": 18080, "privately</w>": 32970, "respond</w>": 12355, "chrissy</w>": 40485, "diameter</w>": 27189, "duc</w>": 36446, "leafy</w>": 42616, "victory": 36668, "camila</w>": 19919, "doin</w>": 15412, "higher</w>": 5321, "elfie</w>": 39955, "gerald": 29901, "admit</w>": 13769, "yachts</w>": 29260, "manafort</w>": 40108, "weet</w>": 17742, "acher": 38442, "piff</w>": 40719, "olin": 37823, "donna</w>": 9158, "minerals</w>": 21169, "hardwork</w>": 27404, "\u00f0\u0141\u0134\u0138\u00f0\u0141\u0134\u0138\u00f0\u0141\u0134\u0138</w>": 33915, "hunter": 16531, "tac</w>": 22653, "eleague</w>": 36577, "henry</w>": 5508, "traff": 31571, "italian": 20264, "engine": 3355, "aldo</w>": 9933, "breakdown</w>": 14519, "vulnerability</w>": 28797, "ciara</w>": 31369, "ultimately</w>": 23023, "harrison": 34389, "snowboard</w>": 33403, "correspon": 20203, "hans</w>": 16628, "whales</w>": 17722, "poet</w>": 9872, "ogue</w>": 24761, "filmfare</w>": 42224, "psi": 45848, "semi</w>": 6684, "fen</w>": 25024, "firsth": 48512, "printers</w>": 27881, "kala": 45453, "mills</w>": 10331, "denmark</w>": 13268, "brae</w>": 40040, "christine": 42610, "tium</w>": 21975, "madon": 44852, "casting</w>": 7087, "trench</w>": 23846, "mutual</w>": 15055, "cedar</w>": 13799, "editor</w>": 7661, "onist</w>": 10099, "indone": 6180, "jenner</w>": 14260, "friends": 38875, "aller</w>": 30630, "lique": 32680, "ninety</w>": 48214, "praying</w>": 11550, "fern": 10747, "sya</w>": 35017, "devgn</w>": 29871, "fanboy</w>": 43369, "vibr": 9527, "ryu</w>": 34604, "trailblazer</w>": 41015, "out": 1130, "challenge</w>": 2836, "mora</w>": 29262, "mero</w>": 19097, "humorous</w>": 38173, ".-</w>": 12481, "hadley</w>": 44995, "songwriters</w>": 39583, "willis</w>": 18491, "whs</w>": 26292, "hara</w>": 10367, "sw</w>": 4457, "verification</w>": 33521, "reactions</w>": 18438, "\u0137\u00e3\u0124": 26609, "sonam": 40096, "nko": 36353, "nrc</w>": 45786, "bulls</w>": 10313, "jensen": 35558, "noche</w>": 29689, "unfortun": 10194, "upbeat</w>": 39201, "zania</w>": 15059, "mans</w>": 7746, "capt": 45815, "dders</w>": 24827, "norfolk": 30232, "pierre": 34670, "remn": 29127, "awan": 48869, "towels</w>": 26578, "stare</w>": 18094, "exhibitions</w>": 28311, "sixth</w>": 12909, "shab": 8323, "brigade</w>": 16032, "tians</w>": 35182, "churchill</w>": 17527, "supporters</w>": 7403, "ministers</w>": 16406, "polite</w>": 31497, "reco</w>": 46038, "far": 1578, "\u00f0\u0141\u012e\u00b9\u00f0\u0141\u012e\u00b9": 37933, "zimmer</w>": 35211, "lear</w>": 27663, "humber": 30602, "slam</w>": 10131, "prejudice</w>": 28337, "thorough</w>": 34788, "heritage</w>": 5455, "muppets</w>": 40187, "trolley</w>": 25124, "martyr": 36155, "recur": 19983, "dragonfly</w>": 32824, "whistle": 23972, "\u00ed\u012c": 23215, "sentences</w>": 25858, "\u00ec\u012c\u00a4</w>": 23829, "bosch</w>": 19466, "eso": 29890, "dealers</w>": 21697, "serious": 47421, "bernade": 46242, "logists</w>": 12233, "septic</w>": 34690, "lolla": 45483, "mea</w>": 17711, "embraced</w>": 35739, "provisions</w>": 39269, "azzur": 37055, "daystogo</w>": 42198, "campsite</w>": 44243, "unesco</w>": 16216, ";)</w>": 3661, "armory</w>": 38610, "limits</w>": 11966, "ncfc</w>": 31274, "basic": 40452, "thanking</w>": 21989, "galleria</w>": 40656, "zai</w>": 27065, "kia</w>": 8712, "bore</w>": 24638, "persecu": 22878, "pundit</w>": 41466, "drill</w>": 11626, "mariana</w>": 44224, "sovereignty</w>": 31701, "indicate</w>": 26679, "boar": 7837, "kovsky</w>": 33384, "shipment</w>": 28553, "protein</w>": 8088, "metast": 41973, "haider</w>": 42200, "festi": 1943, "instead</w>": 4191, "brea": 7318, "monty</w>": 24038, "baldwin</w>": 16242, "dodge</w>": 12093, "sensitivity</w>": 27788, "bon</w>": 4216, "tardis</w>": 35410, "lets</w>": 3243, "songz</w>": 49302, "crosses</w>": 20473, "dual</w>": 5347, "\u00e5\u0127": 34314, "cal": 1198, "rescu": 8618, "founders</w>": 14602, "travel</w>": 1949, "retali": 33101, "fabrication</w>": 33476, "ummm</w>": 33665, "condos</w>": 42342, "michal": 47144, "wii</w>": 8005, "jalape": 34263, "pmoindia</w>": 20374, "rehearsing</w>": 23125, "innovate</w>": 24549, "cofficial</w>": 18757, "presto</w>": 42211, "blk": 42950, "\u00e2\u013b\u00a5\u00e2\u013b\u00a5": 12975, "shetland</w>": 29595, "aconf</w>": 38851, "mince</w>": 32396, "passionate</w>": 10947, "cams</w>": 32590, "slots</w>": 19238, "shiel": 33413, "pang": 16756, "viva</w>": 17399, "zurich</w>": 21288, "aeronau": 42816, "eccc</w>": 47401, "chia</w>": 19147, "asparag": 20301, "dive": 26042, "/": 14, "runner</w>": 7913, "pau</w>": 35970, "resi": 2152, "jorge": 48761, "bane</w>": 9597, "\u00ce": 138, "bret</w>": 32548, "stical</w>": 16660, "barrac": 40835, "predat": 13364, "clash": 38367, "shapes</w>": 15377, "boro": 26796, "\u00e2\u013f\u00a4": 1266, "admire</w>": 17791, "moroc": 11996, "sebring</w>": 41086, "guernsey</w>": 33982, "adn</w>": 40339, "ha</w>": 1429, "breastfeeding</w>": 29033, "token": 32634, "dive</w>": 9058, "pharma</w>": 17831, "asports</w>": 43695, "wol": 2798, "manning</w>": 15996, "hawaiian</w>": 17734, "hbo</w>": 15252, "\u00e2\u0137": 17027, "campo</w>": 27600, "recommended</w>": 11100, "rons</w>": 19536, "mercer</w>": 21632, "\u00f0\u0141\u0133\u012b\u00f0\u0141\u0131\u00bc</w>": 27534, "examines</w>": 28160, "immuno": 24361, "collision</w>": 15407, "culture": 20197, "artisan": 36389, "ino": 4211, "ample</w>": 34162, "privati": 27379, "gusts</w>": 20896, "riley": 35056, "\u013e": 250, "giuliani</w>": 47739, "rural</w>": 8737, "fawn</w>": 48624, "measure": 15261, "uran</w>": 16197, "modi</w>": 7774, "op": 676, "utilities</w>": 27210, "sole</w>": 8576, "realized</w>": 10489, "paige": 33659, "chul</w>": 33001, "\u00f0\u0141\u013a\u012c\u00f0\u0141\u013a\u012c\u00f0\u0141\u013a\u012c\u00f0\u0141\u013a\u012c": 35519, "sophia</w>": 16790, "rol</w>": 7818, "devo</w>": 43444, "bhu": 9172, "dav</w>": 46488, "vital</w>": 10585, "mixed": 29376, "cystic</w>": 46131, "acquainted</w>": 40713, "bartender</w>": 33498, "orchard</w>": 19530, "additi": 26927, "lash</w>": 18480, "bass": 22831, "pd</w>": 4675, "lubric": 40963, "ino</w>": 2691, "enos</w>": 44759, "acf</w>": 38389, "neat": 43201, "husbands</w>": 33612, "ure": 5514, "buster": 37219, "ering</w>": 1785, "\u00f0\u0141\u00a6\u012d</w>": 28985, "americana</w>": 26221, "mvc</w>": 40549, "hub": 18775, "\u00f0\u0141\u012e\u0130</w>": 16969, "demb": 35930, "arguably</w>": 30899, "grant": 18682, "ound": 2013, "opd</w>": 38288, "martyrs</w>": 24707, "\u0138\u00ef\u00b8\u0131</w>": 28877, "maymayentrata</w>": 30480, "lebo": 44184, "lanyard</w>": 46808, "treasure</w>": 9922, "sdcc</w>": 13246, "ein</w>": 24524, "lease</w>": 14394, "crumble</w>": 36595, "\u00e2\u0126": 8604, "associate</w>": 11777, "oners</w>": 12324, "turkey": 35977, "needle</w>": 19886, "mian</w>": 24792, "coloring</w>": 17696, "peep": 25425, "will": 5062, "spe</w>": 36676, "indiegame</w>": 17969, "newell</w>": 41436, "alli": 4123, "indo</w>": 18297, "bryce</w>": 19895, "strike</w>": 5767, "heard</w>": 4063, "slapped</w>": 38861, "fau": 5571, "moma</w>": 33605, "winnings</w>": 46490, "inc": 14570, "ding</w>": 796, "dye</w>": 15997, "condu": 40772, "vr</w>": 5921, "hyde": 46484, "nicholls</w>": 38846, "drive</w>": 2620, "kimchi</w>": 41027, "steer</w>": 27612, "kok": 32045, "imv": 35731, "amp": 3521, "compass</w>": 19438, "deplor": 39232, "visible": 36658, "shawnee</w>": 48060, "eradic": 36346, "sweat": 10282, "dawn</w>": 7689, "louis</w>": 4459, "bmx</w>": 22535, "chap</w>": 21939, "snu": 9694, "crayon</w>": 41801, "camerondallas</w>": 40587, "roz": 28989, "labeled</w>": 32720, "multip": 40314, "def</w>": 11649, "champagne</w>": 11007, "vc</w>": 7952, "wedges</w>": 33179, "unified</w>": 20876, "spirit": 18224, "fashionblogger</w>": 31726, "weekday</w>": 29244, "handedly</w>": 48656, "planted</w>": 14286, "cologne</w>": 22216, "malaysi": 39668, "strolling</w>": 40911, "\u00f0\u0141\u0129\u00b5\u00f0\u0141\u0129\u00b0</w>": 37764, "timesof": 32522, "president": 19900, "milwaukee</w>": 14259, "zaynmalik</w>": 25278, "chopping</w>": 35375, "sept</w>": 5380, "guess</w>": 3135, "theatres</w>": 21680, "sqft</w>": 41912, "addi</w>": 36378, "four</w>": 2721, "anit": 23683, "horror</w>": 5032, "rb": 12740, "mnwild</w>": 39044, "autograph</w>": 13722, "cola</w>": 15444, "bestof": 27892, "attn</w>": 25677, "ruption</w>": 35403, "meryl</w>": 35787, "abusing</w>": 36558, "cubic</w>": 29614, "biomass</w>": 36746, "heavy</w>": 4200, "oph": 6796, "\u00f0\u0141\u0134\u00a8</w>": 17891, "flexible</w>": 14502, "ghost": 11417, "\u00f0\u0141\u0129\u00a8\u00f0\u0141\u0129\u0143</w>": 41119, "storage</w>": 6824, "cool": 5594, "display</w>": 4456, "dade</w>": 23299, "bluffs</w>": 48844, "stically</w>": 19041, "prosperous</w>": 28252, "fsu": 44185, "\u00c3\u00b3": 8891, "excluded</w>": 46216, "autistic</w>": 29360, "lders</w>": 43221, "gram</w>": 2338, "veto</w>": 36570, "yield</w>": 16825, "sti": 860, "ovski</w>": 26167, "belonged</w>": 39893, "limbs</w>": 34886, "miaw</w>": 36046, "albeit</w>": 38984, "tasted</w>": 22827, "archan": 33359, "sburgh</w>": 48205, "imper": 7727, "intra": 20922, "nami": 20393, "accumul": 19275, "achi</w>": 9087, "\u00e0\u00a4\u013e</w>": 39561, "tr</w>": 6337, "sustain</w>": 28156, "white</w>": 1579, "speech</w>": 4902, "shrun": 46767, "\u00f0\u0141\u00a5\u00ba": 43380, "yle</w>": 10770, "cornish</w>": 23774, "vere</w>": 34707, "optional</w>": 25411, "police": 15535, "drowning</w>": 24618, "wien</w>": 38131, "jagan</w>": 48530, "sagu": 44708, "...</w>": 678, "create</w>": 3380, "itors</w>": 22005, "uttarakhand</w>": 35655, "charming</w>": 12177, "hospitality</w>": 11657, "\u00f0\u0141\u013a\u012a": 14377, "playable</w>": 33885, "robb</w>": 39673, "rit": 5156, "pgs</w>": 49204, "tanya</w>": 26800, "stjohn": 36153, "bei</w>": 23227, "ffer</w>": 11636, "risen</w>": 23653, "generously</w>": 35113, "asked</w>": 3993, "queen</w>": 2997, "caw": 38405, "sous</w>": 32093, "brewingco</w>": 45155, "thunder</w>": 8951, "updating</w>": 22792, "ay": 658, "dre": 960, "cycle": 19083, "extingui": 38567, "dissol": 27398, "thur</w>": 21704, "********": 42974, "stuffs</w>": 43455, "T": 51, "flask</w>": 36194, "electr": 3654, "real</w>": 1532, "lim</w>": 17204, "\u00f0\u0141\u0133\u0132</w>": 40877, "criticize</w>": 46081, "forgets</w>": 35613, ")!!</w>": 47518, "sb": 5576, "dengue</w>": 41932, "stadi": 26587, "trey": 36670, "bloc</w>": 30961, "pff</w>": 44121, "metmuseum</w>": 28207, "shun</w>": 39594, "seun": 24209, "fling</w>": 22768, "asdfghj": 42758, "perform</w>": 5940, "protector</w>": 20441, "gower</w>": 43448, "voter</w>": 14065, "derived</w>": 26461, "either</w>": 6036, "combs</w>": 30694, "zzz</w>": 20055, "uki</w>": 9009, "afrika</w>": 45833, "beverage</w>": 18694, "rc": 7575, "combined</w>": 10427, "roadtrip</w>": 15094, "republic": 6376, "conclu": 9627, "\u00f0\u0141\u0130\u00b9</w>": 43493, "shine": 17582, "born": 17695, "stellar</w>": 13810, "pessi": 43902, "peculiar</w>": 42808, "righte": 20762, "umatic</w>": 45006, "stev": 11640, "carved</w>": 15127, "nath": 22203, "btw</w>": 9520, "magne": 9921, "rouge</w>": 16209, "diagram</w>": 22697, "ilion</w>": 12561, "patterns</w>": 11637, "marketing": 19535, "fball</w>": 29663, "penguin": 28249, "rj</w>": 20949, "bernie</w>": 10503, "peshawar</w>": 29230, "interstellar</w>": 41506, "satisf": 22941, "storyteller</w>": 35882, "judgement</w>": 25246, "guadalupe</w>": 38360, "insulin</w>": 29311, "bison</w>": 19741, "poetry": 20192, "loveit</w>": 24764, "tney</w>": 9523, "cougars</w>": 20425, "sudan</w>": 13474, "scountry</w>": 40432, "genevie": 41633, "kore": 3919, "educators</w>": 15420, "globalwarming</w>": 46017, "jad": 12976, "winger</w>": 22727, "\u00f0\u0141\u012e\u0141</w>": 8542, "khs</w>": 21239, "chak</w>": 41713, "dnt</w>": 26795, "rhodes</w>": 17785, "topoli</w>": 30152, "aroa</w>": 48209, "grads</w>": 17811, "\u00a1\u00ef\u00b8\u0131</w>": 4174, "scribe</w>": 36228, "sometimes</w>": 4237, "bair": 29059, "ministerial</w>": 33008, "msm</w>": 22210, "excessive</w>": 21332, "ris</w>": 1999, "grims": 34861, "aer": 10195, "fik</w>": 46589, "charismatic</w>": 37205, "sf</w>": 4915, "ruck": 27449, "councils</w>": 29938, "issue</w>": 3202, "shouts</w>": 26709, "cain</w>": 13747, "hereford</w>": 35543, "come</w>": 891, "together": 17858, "ously</w>": 2501, "generators</w>": 41917, "shra": 21360, "wexford</w>": 29876, "leicester": 28795, "denying</w>": 32771, "wbc</w>": 26745, "??????</w>": 34589, "aristotle</w>": 49156, "farmers": 29752, "luck": 9647, "fbloggers</w>": 41389, "ough": 4204, "oblast</w>": 42672, "sixers</w>": 25941, "t\u00c3\u00a9</w>": 39694, "delectable</w>": 45500, "affinity</w>": 41451, "accurate</w>": 8858, "nobelprize</w>": 46074, "aboard</w>": 11661, "bluef": 41174, "flavo": 28895, "sth": 13456, "rowling</w>": 29371, "hoos</w>": 46462, ":-</w>": 10323, "angp</w>": 19992, "andfriends</w>": 36871, "services</w>": 3100, "itss": 47040, "caro": 30317, "montenegro</w>": 30378, "spor": 1475, "alle</w>": 29478, "tacos</w>": 14090, "pete</w>": 8571, "zain": 34400, "chew</w>": 22642, "willow": 33887, "high": 1487, "rarity</w>": 45862, "xa</w>": 24831, "elena</w>": 19421, "**</w>": 4441, "cloud</w>": 3887, "rockers</w>": 32338, "killed</w>": 3733, "henna</w>": 39455, "acu</w>": 48475, "degre": 4653, "exclusively</w>": 13565, "podium</w>": 14093, "evacu": 13187, "\u00ea\u00b2": 35555, "spoils</w>": 42436, "off</w>": 1007, "yos</w>": 35607, "pakistan": 10713, "ipod</w>": 17889, "ramadan</w>": 15547, "stand": 1819, "moods</w>": 43727, "\u00ec\u012d": 23924, "competed</w>": 27767, "tiptuesday</w>": 42112, "N": 45, "spas": 31714, "kok</w>": 11225, "seaworld</w>": 27422, "pilates</w>": 29518, "competitiveness</w>": 43209, "euston</w>": 46905, "triple</w>": 7673, "\u00f0\u0141\u0130\u012a</w>": 14448, "abre": 22472, "spence</w>": 33324, "dune": 32833, "spokesperson</w>": 26234, "herself</w>": 9207, "dailysketch</w>": 46738, "vida</w>": 19015, "erickson</w>": 45286, "...........</w>": 35008, "asing</w>": 4194, "'\u00e2\u0122\u00a6</w>": 42120, "duff": 38071, "drank</w>": 21712, "tiveness</w>": 20955, "spec": 1711, "devel": 1820, "personal</w>": 4121, "benson</w>": 19578, "\u00e0\u00ae\u00a4</w>": 34691, "withdraws</w>": 48637, "stoner": 35131, "fundament": 18852, "mmmmmm</w>": 43740, "\u00e2\u013f\u00a4\u00e2\u013f\u00a4\u00e2\u013f\u00a4\u00e2\u013f\u00a4</w>": 43970, "wits</w>": 30938, "freaked</w>": 43511, "digitalindia</w>": 46630, "pump": 5179, "or</w>": 541, "marker</w>": 18170, "ppi</w>": 9594, "negli": 32594, "bowls</w>": 17787, "dams</w>": 37680, "feast": 37963, "unday</w>": 29338, "trainers</w>": 18871, "stress": 17297, "parole</w>": 32158, "taji": 46358, "exol</w>": 42856, "futbol</w>": 33014, "kerel</w>": 32232, "vehicles</w>": 8361, "\u0112": 206, "followme</w>": 29668, "maiden</w>": 13809, "cincode": 40930, "ambi": 11844, "spit": 18115, "peterborough</w>": 26012, "|@</w>": 41677, "dged</w>": 11830, "jalen</w>": 33548, "byu</w>": 23770, "rade": 44494, "arbit": 20267, "mavs</w>": 30665, "asha</w>": 13472, "pale</w>": 12518, "declared</w>": 13845, "infographics</w>": 33172, "rm": 20202, "td</w>": 3192, "vla": 23686, "cauliflower</w>": 23802, "decorated</w>": 15917, "chanyeol</w>": 18805, "domestic</w>": 9043, "gallipoli</w>": 47249, "lots</w>": 2958, "outlander": 45820, "juve": 47717, "endale</w>": 20290, "youngster</w>": 35881, "frames</w>": 15479, "stl</w>": 12527, "bar": 1040, "nug": 13471, "pv": 14517, "loughborough</w>": 49153, "boats</w>": 10080, "craziest</w>": 32690, "ton</w>": 917, "calculator</w>": 26093, "apro</w>": 49051, "undertaker</w>": 40144, "founder</w>": 5145, "hangar</w>": 33439, "nama</w>": 39586, "brance</w>": 15413, "thalaivar</w>": 44918, "prit": 41668, "below</w>": 3788, "tp": 23760, "any": 1307, "wine": 7375, "ventil": 39522, "intestin": 37938, "tasting</w>": 7656, "ov</w>": 8479, "mangal": 43027, "power": 2789, "rough": 11699, "extermin": 41671, "vibrations</w>": 43660, "employee": 36631, "sine</w>": 33793, "kal</w>": 18712, "salamat</w>": 44696, "chiang</w>": 33764, "pompey</w>": 35079, "raider</w>": 21455, "arc": 4997, "vicky": 37176, "winelover</w>": 26357, "ibrox</w>": 46883, "farmers</w>": 6402, "snack": 47548, "mozart</w>": 22132, "chelsea</w>": 6031, "ugh": 39736, "extreme</w>": 8331, "bein</w>": 24168, "all": 813, "bik": 30306, "vulcan</w>": 34767, "vibes</w>": 7764, "csu": 35948, "brakes</w>": 23456, "morocco</w>": 15228, "silverstone</w>": 29666, "\u00e0\u00a5\u0123</w>": 39653, "dramati": 43512, "loeb</w>": 49334, "literature</w>": 11072, "gat</w>": 18941, "malia</w>": 46714, "sobri": 49308, "bigfoot</w>": 37095, "wps</w>": 33386, "unlv</w>": 42283, "fps</w>": 25300, "panasonic</w>": 29750, "favorite": 35262, "withus</w>": 30572, "matthew</w>": 7008, "redsox</w>": 19144, "arius</w>": 21482, "inflammation</w>": 24893, "rider</w>": 9707, "delve</w>": 46008, "exact</w>": 12651, "third": 32102, "displacement</w>": 37931, "fairway</w>": 44022, "\u00f0\u0141\u0131\u0134</w>": 37756, "melody</w>": 19119, "quart": 7851, "liet</w>": 41107, "griffin": 46612, "somewhat</w>": 17864, "hehe</w>": 10658, "dunbar</w>": 41453, "miner": 14109, "psychi": 18147, "parallels</w>": 46101, "christophe</w>": 45486, "disab": 47380, "sri</w>": 9276, "jitsu</w>": 24530, "arabs</w>": 39155, "\u0126\u00e0\u00b8": 20537, "wifey</w>": 35282, "naughty": 47255, "tbl</w>": 42962, "alcohol</w>": 9426, "nigerian</w>": 12167, "amuse</w>": 44367, "degree</w>": 7119, "asant</w>": 25536, "wac": 27445, "antidote</w>": 45476, "testimony</w>": 18672, "mha</w>": 41944, "\u00f0\u0141\u0130\u012b\u00f0\u0141\u0130": 11473, "vt": 31732, "particularly</w>": 12170, "vach": 46211, "\u00f0\u0141\u013c\u00b2</w>": 37085, "recogni": 5329, "evangel": 20518, "kelsey": 42295, "oon": 35651, "edel": 20460, "clusive</w>": 41362, "supposedly</w>": 32302, "raji": 27569, "shear": 27974, "heather": 20230, "heaton</w>": 34557, "whatsapp</w>": 10119, "wusa</w>": 40021, "wks</w>": 25508, "\u00f0\u0141\u0133\u0128": 42975, "::": 33077, "digestion</w>": 40533, "complement</w>": 36624, "exhibit</w>": 8209, "fulfill": 43675, "insu": 8805, "misleading</w>": 30862, "delays</w>": 11232, "\u00cc</w>": 392, "jasper</w>": 19827, "dsburg</w>": 47237, "overview</w>": 14789, "danger</w>": 11212, "gourmet</w>": 19111, "nate</w>": 7587, "nebraska</w>": 14565, "pictures</w>": 3646, "port</w>": 1418, "areas</w>": 5429, "peregr": 37479, "toid</w>": 49124, "smug</w>": 41021, "her": 1223, "streamer</w>": 25178, "colonial</w>": 16530, "sru": 44152, "abad": 33444, "magi": 19270, "pity</w>": 24380, "\u00d8</w>": 404, "predict</w>": 16900, "violating</w>": 37554, "alumini": 22908, "baltic</w>": 23817, "ingday</w>": 16561, "nathaniel</w>": 32667, "decorating</w>": 16968, "ericsson</w>": 39645, "fishers</w>": 42065, "walcott</w>": 45744, "registering</w>": 33510, "aked</w>": 6115, "ock</w>": 21313, "pfc</w>": 35007, "midi</w>": 27326, "\u00f0\u0141\u0133\u0133</w>": 8717, "\u00f0\u0141\u0132\u00b1</w>": 22979, "sing": 1387, "kuber": 41336, "tucson</w>": 17250, "mock": 15641, "toto</w>": 39823, "etihad</w>": 38489, "om": 547, "angeles</w>": 7382, "tism</w>": 27113, "dartmouth</w>": 29667, "arosa</w>": 44264, "siss": 42929, "ired": 32728, "midwi": 44802, "movement</w>": 5208, "emili": 20709, "what</w>": 768, "tennant</w>": 29310, "bye</w>": 4460, "ccm</w>": 40435, "gdp</w>": 17100, "learners</w>": 19572, "tification</w>": 43923, "grandes</w>": 36382, "cd</w>": 4480, "draft</w>": 5198, "\u00f0\u0141\u013a\u0124\u00f0\u0141\u013a\u0124": 2286, "ment</w>": 777, "daf</w>": 36704, "\u0113": 207, "hiro": 17396, "ramps</w>": 35257, "obli": 11416, "\u00f0\u0141\u0134\u012e</w>": 40817, "\u00f0\u0141\u013a\u012a\u00f0\u0141\u013a\u012a</w>": 44473, "abil": 21135, "cesar</w>": 28603, "saas</w>": 25761, "downloaded</w>": 22961, "clg</w>": 47546, "ecg</w>": 45983, "followed</w>": 6499, "fiable</w>": 34373, "eighty</w>": 47449, "\u00f0\u0141\u0136\u013e</w>": 36011, "strong": 10436, "refurbished</w>": 26190, "kickstarter</w>": 13228, "fused</w>": 38994, "ditional</w>": 4322, "confe": 1968, "pm</w>": 990, "nicer</w>": 29488, "dispatch</w>": 26306, "abc": 13137, "ffl</w>": 39490, "nod</w>": 18648, "digitaltransformation</w>": 20047, "disney": 6729, "atp": 38105, "prettiest</w>": 22866, "ausch": 33926, "prosper</w>": 33526, "peoples": 28241, "ideology</w>": 25840, "justin": 7537, "thouse</w>": 7819, "tombs</w>": 48613, "reland</w>": 15220, "commonly</w>": 20344, "exeter": 32137, "\u00f0\u0141\u012f\u0143</w>": 42100, "maggi": 29611, "unanim": 20800, "unexpectedly</w>": 35622, "intellect</w>": 47828, "rugged</w>": 25225, "cubes</w>": 31413, "foster</w>": 8139, "tien</w>": 47538, "hardro": 28126, "slipknot</w>": 41816, "recently</w>": 4482, "\u00f0\u0141\u0134\u013d\u00f0\u0141\u0134\u013d": 32420, "vy</w>": 5157, "provides</w>": 7161, "boardwalk</w>": 29043, "funded</w>": 10588, "ury": 8642, "\u00f0\u0141\u012e\u00bc": 36484, "divi": 8375, "envision</w>": 49031, "mbar": 44452, "hermes</w>": 34563, "unexpec": 31829, "gote</w>": 49345, "plaid</w>": 23291, "sh": 552, "conceptual</w>": 34070, "xh</w>": 45771, "jelly": 19110, "warp</w>": 32411, "hersh": 20379, "omg</w>": 3186, "progress</w>": 4421, "mobility</w>": 12546, "cba</w>": 38472, "carrier</w>": 12308, "garda</w>": 31906, "keane</w>": 28635, "reno</w>": 12831, "desire</w>": 11858, "dystop": 28276, "keting</w>": 15951, "buss</w>": 47764, "overall</w>": 6914, "hore</w>": 15380, "link</w>": 2468, "dynamo</w>": 28281, "rasheed</w>": 41638, "ecc</w>": 33128, "surrounding</w>": 12544, "chevrolet</w>": 13240, "twal": 48126, "atown</w>": 24000, "unemp": 15139, "\u00ec\u00a7\u0126</w>": 38890, "assisted</w>": 18095, "card</w>": 2601, "hickory</w>": 29905, "domin": 4361, "pneumonia</w>": 42906, "\u00a9</w>": 358, "nudes</w>": 32122, "ao": 7313, "llan": 17281, "lu": 664, "split": 25443, "iterate</w>": 43106, "suffer</w>": 13557, "hot": 2851, "chang": 2233, "andy": 9447, "waa</w>": 35874, "device</w>": 8163, "dorsey</w>": 41607, "heartnews</w>": 40426, "reefs</w>": 34459, "fitfam</w>": 20662, "poly</w>": 18367, "fru": 3248, "orientation</w>": 16873, "fabrics</w>": 23159, "losing</w>": 7918, "icn</w>": 44516, "\u00f0\u0141\u00a4\u0135": 36580, "(\u00c2\u00a9</w>": 44886, "sedge</w>": 45288, "whun": 18272, "goyal</w>": 35105, "blossom</w>": 14472, "paler": 38028, "force": 12068, "pride": 15323, "fica</w>": 26952, "raymond</w>": 16683, "fran": 2118, "excav": 20733, "\u00ef</w>": 427, "camper": 41914, "strang": 11138, "unlucky</w>": 35029, "ego": 34712, "ecar": 34500, "fevre</w>": 43861, "circus</w>": 11833, "oka</w>": 19092, "entine</w>": 49212, "films</w>": 5370, "moons</w>": 29887, "nether": 9946, "kj</w>": 28238, "\u00f0\u0141\u013a\u0124\u00f0\u0141\u013a\u0124\u00f0\u0141\u013a\u0124\u00f0\u0141\u013a\u0124\u00f0\u0141\u013a\u0124</w>": 19295, "zer": 6118, "hosp": 2847, "kk</w>": 10849, "naming</w>": 19367, "mur</w>": 18293, "vard</w>": 8773, "radios</w>": 43669, "urope</w>": 14918, "crockett</w>": 48313, "dungeons</w>": 42572, "amc</w>": 16921, "articulate</w>": 45444, "summer</w>": 1673, "blues": 17566, "anushkasharma</w>": 44203, "nous</w>": 29485, "tracks</w>": 7579, "toor": 42590, "lands</w>": 2961, "\u00f0\u0141\u0133\u012f\u00f0\u0141\u0131\u00bc</w>": 19689, "tball</w>": 1467, "rata</w>": 28568, "ural</w>": 33948, "\u0119": 213, "dmc</w>": 28991, "'t</w>": 713, "ffey</w>": 30138, "bundle</w>": 11793, "switzerland</w>": 9912, "pi": 741, "traw": 42288, "cuck": 26364, "supt</w>": 23625, "bruh</w>": 17575, "rukh</w>": 27631, "impeccable</w>": 40111, "popping</w>": 18152, "ao</w>": 5703, "bonn</w>": 38969, "epile": 23150, "wether</w>": 48405, "emabiggest": 23101, "kwi": 35327, "responsi": 5490, "pew": 21608, "\u00f0\u0141\u0133\u0131\u00f0\u0141\u0131\u00be</w>": 45450, "lamb": 19863, "mcbride</w>": 35080, "umm": 26129, "residentevil</w>": 48393, "carrying</w>": 9920, "companions</w>": 37124, "amb": 9042, "inspire": 27901, "whisky": 37567, "agenda</w>": 8728, "dayofthe": 38043, "pix</w>": 13088, "contaminated</w>": 35773, "jewish": 29594, "iheart": 30332, "carmichael</w>": 41657, "beetle</w>": 16534, "nigh": 13525, "trit": 37087, "guitars</w>": 15023, "goodwill</w>": 24902, "inner": 24512, "lup</w>": 27413, "fourteen</w>": 46255, "ketch": 22590, "flavored</w>": 29350, "rol": 3393, "tar": 2002, "gaunt": 31862, "small": 5244, "tofthe": 23678, "hamza</w>": 45762, "cera</w>": 34608, "recor": 1723, "ayo</w>": 18708, "winget</w>": 44578, "nee": 20494, "endorses</w>": 34603, "malls</w>": 36447, "ory</w>": 1985, "bornonthisday</w>": 42757, "orah</w>": 40820, "hackney": 48811, "vali": 8230, "mum": 15565, "cracking</w>": 13008, "trc</w>": 41803, "hyper": 7997, "gracing</w>": 37263, "brutally</w>": 28132, "village</w>": 4331, "dunkin</w>": 36415, "popo": 38835, "tyfree</w>": 41215, "wrapped</w>": 9875, "koo</w>": 40472, "taiwan": 36319, "ini</w>": 3581, "dutt</w>": 30081, "positivity</w>": 19966, "informative</w>": 19364, "sealed</w>": 13358, "spiro": 40085, "cuer": 39506, "shaf": 12032, "mtv</w>": 12555, "toron": 37407, "egos</w>": 43992, "sights</w>": 17364, "definition</w>": 11405, "blocks</w>": 10113, "pockets</w>": 19566, "forever": 14748, "refu": 3545, "mention</w>": 6762, "slack": 37108, "placements</w>": 43885, "significance</w>": 23769, "loose": 43815, "flashing</w>": 31764, "furry</w>": 15351, "quan</w>": 27490, "\u010f</w>": 459, "mint</w>": 7506, "miliband</w>": 41440, "spray": 37885, "vices</w>": 8332, "karla</w>": 42309, "whiche": 48719, "inviting</w>": 14349, "maker</w>": 4836, "chop": 10458, "maison</w>": 27626, "cornell": 38689, "sof</w>": 41187, "mcg</w>": 27995, "myers</w>": 15993, "timber": 14441, "drs</w>": 21257, "outw": 34650, "vard": 21866, "inline</w>": 45004, "advertisement</w>": 18713, "complic": 11460, "elevate</w>": 26736, "absor": 14303, "hv</w>": 18593, "kitty</w>": 8417, "gart": 18380, "reposit": 41276, "chemotherapy</w>": 41412, "machine</w>": 4169, "marshmal": 21069, "urd</w>": 47880, "rider": 31056, "gren</w>": 20119, "arama</w>": 49066, "narrowly</w>": 29747, "guardian": 23713, "aimed</w>": 20247, "mth</w>": 48151, "busting</w>": 29622, "commish</w>": 45399, "prosperity</w>": 17203, "remember</w>": 2195, "inghour</w>": 42728, "hinton</w>": 47165, "elu": 14208, "twa</w>": 46954, "huston</w>": 46480, "discover": 10539, "thevamp": 33701, "mie</w>": 10555, "hunters</w>": 16115, "uploading</w>": 30145, "kashmir": 20251, "processed</w>": 23816, "ridin</w>": 47869, "qualifiers</w>": 21388, "tre": 975, "montage</w>": 32325, "sox": 39556, "chapel": 40859, "oats</w>": 24150, "nau</w>": 32878, "network</w>": 3304, "pardon": 47606, "recu": 26798, "chab": 26670, "col</w>": 9371, "vishal</w>": 33648, "dust": 29723, "spon</w>": 48216, "rebel": 8185, "ambigu": 35702, "greys</w>": 44311, "mobile": 12935, "itali": 11644, "dok</w>": 41034, "astic</w>": 15876, "ority</w>": 5556, "stowe</w>": 34196, "liverpool</w>": 5366, "ele": 2084, "chana</w>": 48752, "hism</w>": 23502, "acad</w>": 32537, "theroy": 38146, "shops</w>": 6467, "helens</w>": 45940, "vicki</w>": 34927, "raju</w>": 47029, "sont</w>": 31063, "wett</w>": 41971, "\u00f0\u0141\u012f\u00b8": 43058, "fullerton</w>": 42822, "tony</w>": 4767, "flagship</w>": 19779, "sighting</w>": 17507, "holiness</w>": 37259, "geist</w>": 38290, "soo": 5517, "topia</w>": 29618, "starting</w>": 2530, "kno": 1482, "niche</w>": 25279, "___": 43812, "afternoon": 39035, "manson</w>": 26715, "gangs</w>": 29844, "volvo</w>": 16906, "stered</w>": 6935, "healthye": 31532, "detroit": 19404, "matur": 22897, "letter</w>": 4861, "ceo": 46340, "petroleum</w>": 22063, "fa</w>": 2800, "firen": 34752, "well": 3277, "tuesday": 10209, "dock": 17311, "chains</w>": 14438, "socent</w>": 30831, "airs</w>": 18539, "kf": 33308, "immune</w>": 15606, "\u00e2\u0143\u0132</w>": 19012, "los</w>": 3087, "merkel</w>": 24715, "pretending</w>": 21306, "'ve</w>": 1200, "\u00f0\u0141\u013a\u0126</w>": 7624, "decre": 12284, "max</w>": 3902, "megal": 37650, "talk</w>": 1841, "selangor</w>": 44402, "trum</w>": 11399, "starwars</w>": 7887, "tcm</w>": 26588, "hahahaha": 8058, "cosmo</w>": 32072, "politicians</w>": 12914, "chemicals</w>": 17426, "rights</w>": 3336, "eleven</w>": 17795, "palawan</w>": 48202, "zero": 14867, "finding": 37455, "sandstone</w>": 36796, "bueno</w>": 46202, "msl</w>": 42736, "copter</w>": 28049, "elier</w>": 14634, "hermione</w>": 45502, "tuesdaythoughts</w>": 17988, "has": 13855, "sprinter</w>": 36947, "\u00d8\u00b3": 17856, "gazaunderattack</w>": 42458, "stin</w>": 4025, "forestation</w>": 33939, "pupp": 7116, "martin": 6929, "problems</w>": 4671, "slv</w>": 45526, "eo": 16054, "galileo</w>": 39671, "are": 1076, "buda</w>": 49012, "singapo": 27861, "hager": 48773, "anastasia</w>": 37975, "uk": 2294, "parent</w>": 10183, "proms</w>": 37759, "clueless</w>": 35350, "considerable</w>": 38256, "puppylove</w>": 40849, "bro</w>": 4410, "arin": 29564, "markham</w>": 39817, "bonita</w>": 42896, "ipad": 39067, "showyour": 46733, "dex</w>": 13790, "cec</w>": 40029, "ano</w>": 2658, "back": 1663, "korean": 31949, "deals</w>": 4469, "tests</w>": 8715, "rown</w>": 25060, "videogame</w>": 35097, "affiliated</w>": 37540, "extinct</w>": 24488, "U</w>": 308, "patriots</w>": 8707, "connie</w>": 25739, "striped</w>": 22192, "finders</w>": 43884, "yet</w>": 2296, "nan": 4375, "tung": 47940, "jayanti</w>": 37732, "oriental</w>": 23056, "johannes</w>": 37779, "cabinet</w>": 9937, "exhaustion</w>": 49221, "wide": 19341, "ganda</w>": 27261, "away</w>": 1520, "rus": 35811, "okc": 42418, "depar": 10794, "vikram": 41136, "caused</w>": 8940, "tired</w>": 6533, "eamon": 45954, "\u00f0\u0141\u0132\u0132": 47735, "slipping</w>": 36301, "ubi": 26758, "shetty</w>": 25533, "uel</w>": 24231, "enqui": 22810, "\u00a5": 98, "pik</w>": 48539, "allman</w>": 42611, "packaged</w>": 29656, "toy</w>": 5988, "wart</w>": 7346, "suicidal</w>": 37165, "japanese": 27211, "realis</w>": 38114, "zum</w>": 35094, "regular": 14882, "patriotic</w>": 20217, "alaska</w>": 9562, "ephe": 25129, "merchandising</w>": 49196, "morons</w>": 46477, "xu</w>": 37198, "enforcement</w>": 12460, "vir": 1790, "travel": 2824, "travelblog</w>": 35957, "replica</w>": 18125, "michigan</w>": 6296, "distillery</w>": 22200, "jeb</w>": 35101, "gofund": 34445, "imitation</w>": 41630, "rated</w>": 8183, "investigator</w>": 30528, "muscular</w>": 30606, "----": 5753, "panther": 22825, "iti</w>": 6165, "luv": 24726, "loid</w>": 31408, "downward</w>": 37430, "darkness</w>": 10521, "wgn": 48828, "cabs</w>": 42048, "\u00f0\u0141\u012e\u012f</w>": 18641, "afro": 16267, "amg</w>": 21324, "roma</w>": 11631, "wit": 584, "censorship</w>": 27284, "december</w>": 3864, "ohio</w>": 6155, "the": 599, "cypress</w>": 25347, "sav</w>": 26533, "hat": 3447, "commuting</w>": 43503, "artin</w>": 48540, "pilgrims</w>": 31370, "\u00f0\u0141\u012e\u00b2": 34071, "zig</w>": 21345, "mumb": 5850, "agen": 10101, "milne</w>": 44590, "humph": 19767, "avoiding</w>": 22086, "tissues</w>": 32172, "anthus</w>": 37639, "bigdata</w>": 9440, "tok": 16690, "%!</w>": 35070, "mooney</w>": 37942, "biomar": 44549, "ult</w>": 4380, "moth</w>": 11736, "cist</w>": 40906, "feeder</w>": 24482, "paypal</w>": 21442, "yon</w>": 7604, "jean": 13943, "armani</w>": 31314, "conserve</w>": 34231, "monsta</w>": 30718, "cuisine</w>": 10605, "cityfc</w>": 28751, "optic</w>": 24755, "caracas</w>": 45854, "screenwriter</w>": 37293, "random": 11396, "enormous</w>": 20129, "bones</w>": 9476, "partnered</w>": 21402, "pacific": 19723, "\u00f0\u0141\u013b\u012e\u00f0\u0141\u013b\u012e\u00f0\u0141\u013b\u012e</w>": 37127, "retrogamer</w>": 47220, "gfriend</w>": 35245, "revelation</w>": 24053, "intuitive</w>": 35224, "one": 1980, "turned</w>": 3771, "gable</w>": 33387, "kerala</w>": 11881, "wd</w>": 7494, "campu": 19687, "hatch</w>": 17809, "worcestershirehour</w>": 43644, "\u00e2\u00ac\u0129\u00ef\u00b8\u0131\u00e2\u00ac\u0129\u00ef\u00b8\u0131": 40159, "kathy</w>": 18795, "chatted</w>": 34124, "\u00f0\u0141\u013a\u00b9": 26477, "presence</w>": 8848, "been</w>": 1025, "ttino</w>": 47389, "defend": 21970, "funeral</w>": 10606, "implement</w>": 17966, "another": 29274, "conve": 18421, "donnie</w>": 30609, "aley</w>": 21635, "inspec": 7915, "saints</w>": 8769, "indulge</w>": 24851, "sparkly</w>": 30542, "dudes</w>": 14449, "\u00f0\u0141\u0130\u0141</w>": 21107, "sela</w>": 47006, "amarillo</w>": 40449, "snowflake</w>": 33447, "christians</w>": 14842, "forgot</w>": 6483, "\u00e4\u00bb": 37743, "driven</w>": 9314, "politico</w>": 39403, "thanku</w>": 45710, "likelihood</w>": 48158, "echoes</w>": 32564, "shredded</w>": 31772, "approaches</w>": 14962, "tion": 2274, "flwx</w>": 30907, "smo": 2513, "dah</w>": 11776, "ey</w>": 1477, "yui</w>": 47932, "eable</w>": 20693, "mina</w>": 15281, "scoe</w>": 31164, "mashable</w>": 41026, "originated</w>": 41823, "\u00e0\u00ae\u00be</w>": 32831, "ffers</w>": 32163, "vix": 28976, "enterprises</w>": 21219, "multicultural</w>": 34667, "\u00f0\u0141\u0131\u0123": 29423, "helm</w>": 19520, "hopper</w>": 21748, "conden": 24816, "newmusic</w>": 17201, "pursuit</w>": 16469, "insult</w>": 26673, "hydration</w>": 24174, "shelby": 36906, "onym": 11483, "protections</w>": 33772, "experimental</w>": 16539, "sickle</w>": 41459, "usopen</w>": 21782, "trock</w>": 44368, "chops</w>": 26321, "acknowle": 18100, "taps</w>": 23267, "lawler</w>": 47862, "intended</w>": 16812, "\u00e3\u0125\u00ab": 33257, "pedic</w>": 44528, "supersport</w>": 46319, "ter": 704, "veg": 9048, "lum</w>": 5997, "cst</w>": 17016, "yo": 586, "\u00c3\u00a1n</w>": 21385, "dolby</w>": 42414, "gareth": 37140, "jur": 15896, "nis</w>": 3786, "semis</w>": 24013, "abou</w>": 44053, "bpa</w>": 43855, "birth": 1128, "uuuu</w>": 40797, "span</w>": 14537, "bollah</w>": 36336, "nel": 5476, "t\u00c3\u00a9": 27208, "spices</w>": 21194, "orchestra</w>": 9573, "porter</w>": 10318, "play": 1222, "incumbent</w>": 38038, "tariffs</w>": 28335, "rambo</w>": 41855, "roano": 34184, "baf": 13616, "asmsg</w>": 19839, "elie</w>": 26501, "fete</w>": 34629, "kul": 11325, "where</w>": 1234, "horizons</w>": 29685, "gunshot</w>": 49250, "uns</w>": 25908, "arsen": 5330, "lic": 2508, "possibly</w>": 8601, "sunburn</w>": 45767, "germany</w>": 4464, "libr": 2856, "kasi</w>": 32819, "demetri": 39553, "disappoint</w>": 25446, "jaden</w>": 37174, "planter</w>": 34453, "emi</w>": 18525, "mber": 5467, "detached</w>": 26252, "suarez</w>": 21437, "references</w>": 24009, "firsts</w>": 47884, "clement": 22592, "tious</w>": 14255, "ry</w>": 913, "sciutto</w>": 44392, "tman</w>": 20796, "embrace</w>": 12118, "sol": 1175, "sequo": 32781, "pelle": 31267, "nyfw</w>": 21089, "valentines</w>": 10259, "advanced</w>": 7465, "absen": 32453, "ette": 19981, "ledge</w>": 4815, "cms</w>": 22520, "cnc</w>": 20571, "kats</w>": 44213, "won": 1528, "octag": 37768, "mcco": 46152, "observation</w>": 20250, "\u00f0\u0141\u0135\u012f</w>": 8903, "lanaparrilla</w>": 47819, "ellip": 44816, "smelly</w>": 46145, "sen": 1057, "stures</w>": 27223, "glycer": 48914, "\u00f0\u0141\u0130\u00ac</w>": 18150, "sammy": 31091, "esthe": 18468, "pius</w>": 39988, "reynolds</w>": 14309, "myra</w>": 35694, "ask</w>": 2765, "rots</w>": 16642, "buyer</w>": 14682, "palom": 47698, "bldg</w>": 22981, "intensive</w>": 21049, "pping": 22214, "himss</w>": 41730, "tayl": 3913, "dutch": 22277, "advantages</w>": 23506, "distor": 23781, "laminated</w>": 49079, "penguins</w>": 16557, "dog</w>": 1929, "madein": 13670, "architect</w>": 12192, "compensation</w>": 18663, "pun</w>": 19929, "homers</w>": 38333, "corner": 18509, "arne</w>": 43509, "vings</w>": 22510, "$.</w>": 34682, "mb</w>": 3996, "institu": 4257, "\u011e</w>": 474, "sof": 1571, "biblio": 49131, "botanical</w>": 21026, "aria</w>": 8883, "penny</w>": 11388, "ctv</w>": 27590, "fif": 5309, "aka": 19154, "ments</w>": 1827, "whi": 4295, "\u00f0\u0141\u013a\u012e</w>": 12163, "ison</w>": 4553, "fighter": 35884, "bak</w>": 23742, "fer": 1765, "tb</w>": 7490, "rosario</w>": 33640, "suburb</w>": 37664, "paper</w>": 2802, "mapping</w>": 15231, "girl</w>": 1611, "mand": 4325, "mosquito</w>": 25083, "\u00f0\u0141\u0129\u00ba\u00f0\u0141\u0129\u00b8</w>": 5688, "religions</w>": 31189, "arer</w>": 14857, "sigh": 36303, "sharon</w>": 14138, "learning": 22632, "greatly</w>": 13978, "wiltshire</w>": 28025, "ridd": 21990, "daysto": 29886, "sandwich</w>": 8687, "upp": 19549, "klo": 15296, "thian</w>": 23214, "irling</w>": 26493, "psb</w>": 37017, "diseases</w>": 12035, "belle": 13587, "anth</w>": 29741, "coyo": 16614, "apps</w>": 7020, "\u0123": 223, "pristine</w>": 30618, "\u00f0\u0141\u0129\u00a8": 8889, "typeface</w>": 44969, "slan</w>": 47193, "diversity</w>": 6257, "jersey": 21921, "dris</w>": 35804, "vaughn</w>": 29013, "tutorials</w>": 30973, "trusted</w>": 16538, "verde</w>": 16935, "fray</w>": 41154, "nutshell</w>": 26659, "natural</w>": 3288, "kki</w>": 44672, "ascent</w>": 36625, "\u00c3\u00b4": 26815, "\u00c3\u00ab": 29526, "tdp</w>": 47009, "arum</w>": 48732, "sapp</w>": 40729, "evansville</w>": 44782, "\u00f0\u0141\u013a\u0129</w>": 13091, "choker</w>": 39642, "bul</w>": 10200, "viewer</w>": 15061, "vinegar</w>": 23834, "muni</w>": 39795, "fright": 24277, "summari": 31993, "tsi</w>": 37867, "marco</w>": 10924, "completely</w>": 5989, "\u00f0\u0141\u0135\u00bb</w>": 15882, "dipl": 8490, "ere": 17907, "mahon</w>": 20371, "jn": 24576, "chutney</w>": 36261, "gwen</w>": 24182, "nifty</w>": 25604, "ebony</w>": 30651, "edited</w>": 13945, "slippery</w>": 30814, "eventual</w>": 45321, "confeder": 17104, "chefs</w>": 14486, "marines</w>": 15018, "azar</w>": 27911, "madras</w>": 42046, "leen</w>": 15940, "lothing</w>": 42058, "luckiest</w>": 42469, "glucose</w>": 34642, "().</w>": 41737, "apron</w>": 29502, "transport</w>": 7362, "ety</w>": 2746, "compla": 7428, "gross</w>": 11541, "ist</w>": 2304, "++": 47298, "bron": 4011, "fbs</w>": 48454, "hale": 37038, "commemorate</w>": 21242, "stad": 15832, "burbank</w>": 34862, "emotion</w>": 17464, "byron</w>": 19775, "csw</w>": 41031, "ts</w>": 590, "nickel</w>": 22034, "geeky</w>": 47332, "kerswednesday</w>": 48152, "tornado</w>": 9062, "zlatan</w>": 37877, "nished</w>": 24141, "usable</w>": 22890, "imdb</w>": 30407, "allowance</w>": 35696, "cellars</w>": 44976, "pasture</w>": 34764, "elit": 40882, "nutr": 6198, "laney</w>": 38552, "ancy</w>": 3633, "stime</w>": 24711, "writers": 18742, "rak": 13523, "irn</w>": 42603, "precision": 44021, "naman</w>": 27635, "colo</w>": 27288, "move": 16624, "aun</w>": 38721, "!!</w>": 748, "soon</w>": 1745, "braves</w>": 14422, "\u00f3": 175, "syndic": 21098, "endez</w>": 43850, "allow</w>": 6722, "arresting</w>": 43930, "cu": 729, "environment</w>": 5501, "ffs</w>": 4424, "clan": 29252, "drex": 33985, "scale</w>": 5879, "\u00f0\u0141\u013a\u0124\u00f0\u0141\u0133\u012e</w>": 42000, "brt</w>": 46936, "kochi</w>": 36710, "danc": 3945, "coops</w>": 48531, "rande</w>": 21469, "encan": 30345, "fy</w>": 2702, "westend</w>": 44815, "hookem</w>": 31465, "bras</w>": 22611, "lcfc</w>": 25339, "larson</w>": 27973, "shma</w>": 48074, "rte": 33822, "naz": 6363, "egyp": 10250, "adwords</w>": 48343, "mit": 3303, "enables</w>": 23417, "national</w>": 1362, "families</w>": 4612, "puri</w>": 21974, "practitioners</w>": 29045, "istic</w>": 29556, "lion": 8872, "thirst</w>": 23563, "customer": 24035, "newin": 31911, "kindergarten</w>": 16749, "wa": 869, "scheme</w>": 9024, "inspires</w>": 17245, "ocity": 46039, "brides</w>": 18067, "arca</w>": 37612, "/</w>": 270, "rio</w>": 5782, "ative": 18422, "twent": 27027, "cooling</w>": 15291, "lukaku</w>": 37177, "silvia</w>": 37289, "them</w>": 1180, "broader</w>": 36029, "inherited</w>": 39111, "formed</w>": 6528, "via</w>": 1048, "collected</w>": 11980, "akos</w>": 44659, "jelly</w>": 13762, "bragg</w>": 38545, "oprah</w>": 22562, "cov</w>": 48385, "\u00f0\u0141\u0133\u012b</w>": 3988, "starcraft</w>": 48871, "considerably</w>": 38510, "multitasking</w>": 48684, "duster</w>": 46280, "whyte</w>": 42386, "cricket": 21859, "kman</w>": 33312, "octa": 23444, "prie": 22477, "rupees</w>": 44110, "court": 16837, "usemb": 39700, "democrat</w>": 15431, "counties</w>": 12338, "choc</w>": 21983, "eccle": 27494, "fiore</w>": 44997, "saunders</w>": 23794, "commissioned</w>": 16565, "modeling</w>": 13706, "mystic</w>": 23722, "scol": 13599, "lustre</w>": 46673, "systemic</w>": 33807, "glori": 7270, "cellphone</w>": 39029, "twdfamily</w>": 38218, "omars</w>": 37099, "kic": 24003, "anch": 9489, "dazzling</w>": 28821, "mplo": 47071, "byn": 46917, "batter</w>": 31855, "tenstein</w>": 49139, "python</w>": 13370, "messi": 19394, "biotech</w>": 22514, "ryu": 46656, "allison": 34602, "awaited</w>": 20092, "traf": 3227, "\u00e5\u0128": 27972, "conservatives</w>": 17631, "regulat": 14575, "inted</w>": 6147, "middlesbrough</w>": 32436, "kip": 27636, "phie</w>": 30237, "donny</w>": 32887, "prophetic</w>": 47476, "vien": 36493, "cratic</w>": 32175, "humil": 27205, "peninsu": 13464, "addition</w>": 6698, "icious</w>": 3325, "remembrance</w>": 15860, "onists</w>": 19659, "osaka</w>": 21347, "holic</w>": 16348, "chron": 5577, "pinky</w>": 29803, "vised</w>": 14810, "tts</w>": 11570, "koko</w>": 40003, "description</w>": 13951, "nuke</w>": 39399, "...\"</w>": 5240, "burned</w>": 15022, "winter": 7340, "vick</w>": 29704, "scrum</w>": 29047, "unfor": 14010, "presentations</w>": 16998, "wilson": 23629, "headband</w>": 28556, "jung</w>": 13031, "sumat": 32640, "conditioner</w>": 31239, "aero": 10196, "holler</w>": 49047, "childcare</w>": 31133, "donald": 5990, "silver": 7525, "income</w>": 8044, "bulge</w>": 47603, "\u00f0\u0141\u0133\u00a3</w>": 39755, "tball": 8390, "drag": 8452, "flir": 24330, "component</w>": 21284, "nik</w>": 13705, "sements</w>": 31449, "liston</w>": 48041, "call</w>": 1620, "ish</w>": 1061, "whos": 41460, "gregation</w>": 20131, "mentions</w>": 12334, "mansion</w>": 13404, "il</w>": 958, "bull</w>": 6029, "linton</w>": 36479, "operating</w>": 12218, "albert": 34174, "hooked</w>": 18138, "republican</w>": 9842, "madi": 6527, "control</w>": 3366, "colloquium</w>": 46514, "tastings</w>": 49273, "schiz": 33230, "thed</w>": 31405, "shino": 43074, "\u013c": 248, "sixteen</w>": 28677, "nursing</w>": 11126, "athi</w>": 28918, "\u00f0\u0141\u013a\u013e\u00f0\u0141\u013a\u013e</w>": 43065, "seriea</w>": 32660, "olde</w>": 37731, "fgo</w>": 46113, "atie</w>": 30137, "animal</w>": 4668, "guatemala</w>": 21670, "volumes</w>": 22651, "constructed</w>": 16876, "seaw": 32658, "tren": 2579, "ccs</w>": 30400, "bengaluru</w>": 21707, "rtc</w>": 31648, "hodge</w>": 40585, "prisoners</w>": 17460, "tico</w>": 17670, "trend</w>": 6643, "kidney": 37835, "god</w>": 1731, "ramirez</w>": 23877, "ceram": 10677, "descriptions</w>": 40653, "\u00b8\u00eb": 19693, "buffs</w>": 28906, "improvements</w>": 16320, "tributes</w>": 15537, "retires</w>": 29060, "lair</w>": 31981, "crunch</w>": 16620, "investigate</w>": 15703, "ats</w>": 1032, "whistle</w>": 19746, "orwell</w>": 41218, "restriction</w>": 44282, "\u00f0\u0141\u013a\u013a\u00e2\u013f\u00a4</w>": 48409, "biographical</w>": 49232, "kamen</w>": 40738, "craft</w>": 3588, "epage</w>": 26931, "always": 24997, "boat</w>": 4440, "natic</w>": 44944, "charlotte": 18445, "distributing</w>": 35216, "________________": 20115, "ghana</w>": 9731, "mapp</w>": 36894, "saudi</w>": 8548, "penultimate</w>": 36553, "pares</w>": 12420, "rooting</w>": 25523, "tonne</w>": 42450, "clough</w>": 42909, "misuse</w>": 40970, "scissors</w>": 30867, "nathan</w>": 9711, "ization</w>": 10847, "abolic</w>": 46827, "gloucester": 28133, "stockton</w>": 26130, "russia</w>": 4018, "lights</w>": 3073, "dortmund</w>": 24290, "wenger</w>": 21105, "kofi</w>": 40400, "composites</w>": 45395, "measles</w>": 38230, "jhal": 45695, "topic</w>": 8720, "inverted</w>": 40709, "ofer": 47322, "marvel</w>": 5996, "caver": 41487, "xtra</w>": 26969, "oma</w>": 5358, "fsa</w>": 33373, "weg</w>": 47561, "rk": 38725, "inlet</w>": 35161, "chaplin</w>": 32545, "variable</w>": 26416, "bular</w>": 32187, "top": 5534, "ise": 7669, "tc</w>": 5454, "ruby</w>": 11493, "lucifer": 46224, "coach": 3275, "applied</w>": 12636, "avy</w>": 29973, "ophile</w>": 35915, "drc</w>": 21434, "disrespect</w>": 34055, "lindsay</w>": 16858, "placement</w>": 16724, "\u00e2\u013a\u0122": 32146, "dvd</w>": 7170, "oti": 19567, "manitoba</w>": 20342, "yoongi</w>": 24037, "cairn": 31264, "thin": 2178, "mackay</w>": 32497, "communi": 16164, "gallon</w>": 24615, "amir</w>": 21973, "ivory</w>": 16776, "leaked</w>": 14353, "zam": 7218, "chica</w>": 44190, "arrog": 26997, "applicants</w>": 28035, "pandor": 30250, "hungover</w>": 41110, "knees</w>": 19115, "granth": 41283, "pedal</w>": 19621, "mystery</w>": 6711, "wrote</w>": 5796, "ourse</w>": 15415, "sias</w>": 28645, "prices</w>": 5954, "gy</w>": 1164, "wildfire</w>": 22788, "busy</w>": 4354, "cebu</w>": 20146, "false</w>": 9078, "perfe": 1624, "sectional</w>": 21876, "rade</w>": 17911, "juni": 4029, "particip": 4400, "be</w>": 655, "mopar</w>": 41166, "obsc": 20392, "sank</w>": 43692, "senses</w>": 21809, "publishes</w>": 35633, "\u00f0\u0141\u0133\u0131\u00f0\u0141\u0131\u00bc</w>": 19979, "cisco": 36689, "eck": 25866, "artoftheday</w>": 43990, "monitors</w>": 30478, "queens": 22943, "playhouse</w>": 23254, "wild</w>": 3220, "constellation</w>": 25991, "chal</w>": 30809, "stripes</w>": 14239, "awx</w>": 28385, "setback</w>": 43605, "lasag": 31210, "beek</w>": 37915, "amade": 37366, "ome": 3693, "dq</w>": 28741, "elman</w>": 33622, "metals</w>": 21375, "smith": 10527, "zion": 31763, "eph</w>": 41240, "today": 11800, "bine</w>": 34848, "roam</w>": 34045, "miso": 27657, "shri": 8838, "everywhere</w>": 6364, "saries</w>": 47586, "sudanese</w>": 42837, "bri</w>": 18636, "wheat</w>": 10303, "voo": 19497, "spelt</w>": 38316, "because": 32714, "D": 35, "cum": 20142, "erable</w>": 18801, "blows</w>": 21063, "versatile</w>": 18110, "fold": 35201, "evoc": 43133, "sanchez</w>": 13971, "fabi": 29425, "band</w>": 1963, "grad": 19869, "mul": 1899, "plym": 11907, "projector</w>": 27816, "intrigue</w>": 45140, "sef</w>": 27453, "revamped</w>": 36420, "eres</w>": 15751, "ovich</w>": 27623, "missy</w>": 31515, "clou": 4069, "iota</w>": 37294, "ghaz": 37493, "solutions</w>": 5140, "suzy</w>": 26552, "midwife</w>": 37681, "laos</w>": 34353, "asians</w>": 36771, "tierney</w>": 45693, "annie</w>": 12173, "bow</w>": 4040, "cam</w>": 5982, "scubadiving</w>": 49046, "squared</w>": 32967, "bowler</w>": 25528, "aftermath</w>": 20958, "alumni</w>": 6646, "ached</w>": 17048, "boulder</w>": 18260, "kerry": 24795, "dall</w>": 43631, "pronounce</w>": 40489, "os</w>": 1299, "solst": 20298, "crashing</w>": 24991, "comparable</w>": 27092, "dep</w>": 24370, "famed</w>": 23302, "pti": 29375, "imagines</w>": 47379, "gyne": 45836, "worthit</w>": 40830, "chaz": 47815, "micha": 2083, "respect</w>": 4916, "autobiography</w>": 31509, "anderson": 26683, "scientist</w>": 11083, "helpful</w>": 12695, "newsle": 10727, "addressed</w>": 20817, "harper</w>": 12634, "yas": 8168, "manufacture</w>": 27741, "balsamic</w>": 32654, "annan</w>": 32166, "acquisition</w>": 16543, "slo": 4303, "jayne</w>": 35228, "medium</w>": 8675, "edad</w>": 44724, "butes</w>": 14630, "mondaymotiv": 45488, "jasmin</w>": 47700, "mariah": 31214, "nanny</w>": 31104, "leica</w>": 30206, "insta": 22411, "tall": 11664, "garland</w>": 23418, "angle": 21749, "wrinkles</w>": 35525, "blin": 9678, "wilms": 47879, "outer</w>": 14188, "alde": 33114, "mming": 21038, "gloss</w>": 22014, "gron": 22345, "outline</w>": 26894, "pak</w>": 9094, "raw": 10166, "nikk": 38596, "ban": 1159, "aquino</w>": 33796, "farmland</w>": 45258, "narrative</w>": 15933, "levan": 42543, "paleo</w>": 22198, "rudolph</w>": 30119, "mie": 20865, "stay</w>": 2277, "wj</w>": 35453, "bailey</w>": 10180, "wad": 11133, "mahin": 24113, "poker</w>": 11865, "earl": 30573, "mutant</w>": 28384, "bit": 3010, "kapoor</w>": 9117, "marrow</w>": 31030, "\u00d5": 145, "\u00f0\u0141\u013b\u012d</w>": 30274, "thong</w>": 37058, "proposed</w>": 10615, "jupiter</w>": 16212, "amazon</w>": 4140, "vaa</w>": 37488, "ront</w>": 48881, "buttery</w>": 45535, "puerto</w>": 12289, "\u00b3\u00ef\u00b8\u0131</w>": 24706, "debor": 16738, "co": 622, "potato</w>": 8527, "terms</w>": 8663, "same</w>": 2208, "ack</w>": 725, "taylor": 9044, "ariana</w>": 14892, "fit": 2366, "industri": 5082, "sarah": 9086, "squeeze</w>": 21684, "splace</w>": 38743, "pof": 40850, "newh": 18546, "nayanthara</w>": 45184, "villi": 36907, "ating": 25653, "streams</w>": 13545, "shh</w>": 35025, "frederick</w>": 18570, "balli": 29406, "torquay</w>": 45738, "thompson": 42181, "ang": 883, "intersec": 45246, "duck": 12708, "\u00f0\u0141\u0131\u0131</w>": 32460, "competes</w>": 39826, "ease</w>": 13574, "origin</w>": 12372, "campuses</w>": 31895, "dish": 11039, "investigated</w>": 29180, "maser": 25798, "legislators</w>": 31572, "tunnel</w>": 11096, "\u00e2\u0123\u00a3": 31089, "compu": 11639, "hovering</w>": 43437, "muster</w>": 47361, "gnon</w>": 20561, "mmi</w>": 34147, "\u00f0\u0141\u0131\u012a</w>": 10477, "deliver": 19561, "ras</w>": 8224, "mehta</w>": 25031, "numis": 39100, "medieval</w>": 10789, "biology</w>": 9796, "blush</w>": 22889, "moment": 12197, "warhol</w>": 27554, "pembroke": 36702, "nayanth": 38157, "adelrey</w>": 43627, "bix": 46579, "spun": 47922, "urged</w>": 23790, "earp</w>": 35296, "presents</w>": 4215, "(*</w>": 39575, "eze": 25993, "legislative</w>": 16755, "kejriwal</w>": 17334, "antibiotic</w>": 34387, "steakhouse</w>": 35031, "aaj</w>": 43411, "kali</w>": 26964, "\u00ed\u012c\u00b8</w>": 39820, "homegrown</w>": 32554, "anomaly</w>": 46811, "\u00e6\u0139": 22265, "mew</w>": 40368, "amine</w>": 35823, "rolling</w>": 6347, "patchy</w>": 47488, "hmmm</w>": 17032, "emor": 45034, "med</w>": 2177, "bind</w>": 44513, "lewes</w>": 40431, "loveisland</w>": 30970, "nell</w>": 8117, "retirement</w>": 9205, "flyeagles": 39927, "okinawa</w>": 35877, "philip</w>": 11074, "independence</w>": 7955, "bergman</w>": 42597, "research": 25694, "circuit</w>": 9801, "magdal": 29673, "totally</w>": 5440, "mapoli</w>": 28768, "evangeli": 21372, "woodpecker</w>": 32684, "cco</w>": 28786, "competency</w>": 49293, "vodaf": 28436, "minimal</w>": 18458, "twitterkurds</w>": 32722, "jiu</w>": 44123, "\u00d9\u0128</w>": 25386, "worker</w>": 8098, "bate": 25034, "radial</w>": 42028, "filed</w>": 13864, "interrupt</w>": 48449, "iss": 11738, "fcs</w>": 32095, "scent</w>": 7683, "mayhem</w>": 21502, "royalties</w>": 48660, "romper</w>": 43699, "mull</w>": 35310, "daycare</w>": 36363, "pearl": 21806, "laure": 16932, "ishqbaaaz</w>": 36591, "rogers</w>": 10661, "hunting": 27830, "biz</w>": 5431, "sittin</w>": 40887, "moyes</w>": 37119, "plaques</w>": 45610, "alden</w>": 27710, "hans": 35172, "\u00f0\u0141\u0132\u00bc</w>": 46234, "warped</w>": 32125, "lakers</w>": 13570, "th</w>": 640, "regent</w>": 30455, "perceptions</w>": 38138, "rebounds</w>": 19190, "leans</w>": 9357, "cost": 11360, "viewpoint</w>": 41604, "hard</w>": 1626, "darlings</w>": 39961, "andie</w>": 46318, "tab": 2648, "secondary</w>": 13107, "nuh</w>": 45950, "dinners</w>": 33570, "\u00f0\u0141\u0130\u00a7": 31254, "kodi": 46611, "koval": 47903, "nobel": 33742, "employees</w>": 7377, "instant</w>": 10635, "performan": 8973, "dio": 3779, "marinated</w>": 33406, "convictions</w>": 44366, "lagos</w>": 12728, "controllers</w>": 30374, "\u00d8\u00a7": 6042, "competen": 31853, "mj</w>": 14733, "ilya</w>": 33377, "sno": 8567, "juniors</w>": 16811, "cheapest</w>": 26640, "\u00f0\u0141\u0129\u00ae": 8268, "even</w>": 1427, "westwood</w>": 26371, "paintings</w>": 9956, "ninjas</w>": 42796, "prom": 40363, "euchar": 38362, "lefty</w>": 33935, "encore</w>": 20549, "calcutta</w>": 42901, "brighten</w>": 18208, "loader</w>": 28492, "gonzalez</w>": 18198, "steaks</w>": 30655, "worldre": 33951, "profession": 8104, "liveme</w>": 35396, "spaghetti</w>": 18440, "wv</w>": 14743, "hillary": 13257, "gulf": 22101, "\u00f0\u0141\u0135\u00b7</w>": 5551, "wahl": 27500, "estimate</w>": 21883, "shipy": 26828, "she": 1729, "polo": 35928, "allegiance</w>": 30955, "atm</w>": 14127, "kat</w>": 9341, "neymar</w>": 21878, "broome</w>": 49335, "frees": 27455, "abudha": 21450, "rys</w>": 21654, "anybody</w>": 10071, "ridge": 16580, "iban": 47145, "ikh</w>": 12758, "bikes</w>": 9227, "nikita</w>": 37118, "existing</w>": 12886, "warran": 17392, "\u00e2\u013f\u00a4\u00e2\u013f\u00a4": 9033, "bottles</w>": 9754, "wab</w>": 36852, "whereas</w>": 42234, "black": 2025, "doctoral</w>": 23649, "class": 2876, "asleep</w>": 10749, "dinner": 27548, "ories</w>": 5934, "palmer": 40112, "webdesign</w>": 20470, "audre": 16075, "bulgarian</w>": 38693, "home</w>": 1137, "syner": 22283, "jee": 29250, "\u00f0\u0141\u013a\u012f\u00f0\u0141\u013a\u012f\u00f0\u0141\u013a\u012f\u00f0\u0141\u013a\u012f\u00f0\u0141\u013a\u012f\u00f0\u0141\u013a\u012f\u00f0\u0141\u013a\u012f\u00f0\u0141\u013a\u012f": 48683, "nxt</w>": 17804, "deepak</w>": 45528, "sundance</w>": 24128, "\u00f0\u0141\u0134\u00a9": 48621, "cross": 5266, "moz</w>": 43738, "thenight</w>": 43336, "baro": 17422, "!?!?</w>": 47081, "adversity</w>": 32516, "music": 4110, "elas</w>": 41078, "evil": 23218, "grom</w>": 45284, "vogue": 24418, "kardashi": 13619, "\u00e2\u0138\u00b6</w>": 21126, "edible</w>": 19795, "isle": 19082, "prioritize</w>": 46715, "weekender</w>": 36547, "speed</w>": 4163, "festival": 20946, "swif": 28548, "mbi</w>": 45347, "alloy</w>": 22467, "trumprussia</w>": 39135, "animations</w>": 42870, "revive</w>": 26450, "awakens</w>": 23191, "sauvignon</w>": 32745, "lagi</w>": 39786, "sker": 37640, "dubs</w>": 27013, "ra": 559, "trape": 42435, "xit</w>": 5316, "uncovered</w>": 28234, "apu": 22166, "plumb": 21769, "nutrient</w>": 32900, "norfolk</w>": 12202, "jun": 1637, "beak</w>": 36498, "atlantic</w>": 8189, "fala": 47120, "!,</w>": 29325, "hues</w>": 38003, "parme": 26295, "\u00f0\u0141\u012e\u00b1</w>": 20665, "barton": 48853, "bush": 11191, "gt</w>": 4725, "exposition</w>": 36943, "laven": 15047, "tory</w>": 4214, "brilliance</w>": 28146, "func": 8679, "historic": 30195, "kawasaki</w>": 28227, "canary</w>": 24523, "marble</w>": 13071, "california</w>": 3729, "trunk</w>": 18347, "universi": 41692, "thunderstorm</w>": 12005, "dolphin</w>": 16464, "partition</w>": 42219, "pad": 3798, "coura": 4436, "promised</w>": 11516, "staff</w>": 2813, "suni": 17663, "asis</w>": 12398, "mii</w>": 39896, "wth</w>": 23021, "selfish</w>": 26907, "seagulls</w>": 42215, "\u00f0\u0141\u013b\u012a": 12661, "enham</w>": 24592, "renowned</w>": 14727, "explodes</w>": 38119, "prob": 17706, "guardia</w>": 43628, "nuestra</w>": 45649, "youuu</w>": 35324, "restaur": 3775, "doub": 19631, "secret</w>": 4145, "acer</w>": 25809, "wrath</w>": 29783, "liv": 13895, "shakespeare": 22499, "ito</w>": 4661, "acqu": 7946, "iel</w>": 22729, "logy": 22721, "shi</w>": 3533, "atar": 20128, "fontaine</w>": 37864, "mer": 1316, "impy</w>": 42690, "apartments</w>": 15791, "louis": 8916, "dox": 44786, "tiva</w>": 41886, "brackets</w>": 36183, "dill": 12318, "nasser</w>": 43559, "tog</w>": 45715, "steam</w>": 6972, "pee": 12988, "formulated</w>": 45066, "downloads</w>": 26481, "shaq</w>": 26843, "hiya</w>": 42393, "muc</w>": 49115, "dunks</w>": 48977, "bundled</w>": 47228, "mcfc</w>": 16416, "dixit</w>": 28279, "introductory</w>": 38121, "internally</w>": 41134, "lang": 7969, "hgtv</w>": 47657, "rasp": 10487, "angular</w>": 24981, "crib</w>": 23271, "cubic": 48159, "employee</w>": 9560, "\u00f0\u0141\u013a\u012c\u00f0\u0141\u013a\u012c": 12838, "mid": 2192, "subsidies</w>": 37685, "depri": 28587, "orium</w>": 12015, "schulz</w>": 39572, "erie</w>": 7005, "honor</w>": 3402, "influencer</w>": 25013, "taxes</w>": 11462, "stormed</w>": 45939, "spacecraft</w>": 25940, "stone</w>": 2441, "ags</w>": 16926, "batgirl</w>": 46460, "vre": 44500, "musical": 36002, "\u00f0\u0141\u0129\u00ae\u00f0\u0141\u0129\u00b3</w>": 23602, "claus</w>": 23317, "tapped</w>": 26649, "pastr": 45478, "outsi": 22515, "\"\"\"</w>": 25539, "perform": 3866, "insert</w>": 18807, "stake</w>": 7937, "robbers</w>": 40852, "culver</w>": 42103, "playtime</w>": 43037, "microscopy</w>": 38431, "signatures</w>": 21865, "snyder</w>": 22106, "ozil</w>": 41365, "notes</w>": 5795, "hta</w>": 49384, "keepers</w>": 16130, "base</w>": 4579, "mented</w>": 9249, "jap": 2299, "wearec": 43620, "deri": 34573, "docking</w>": 40845, "erica</w>": 13208, "pillar</w>": 17322, "edmonton": 37311, "nws</w>": 30998, "babymetal</w>": 45013, "anushka": 42080, "renovated</w>": 23839, "march</w>": 2227, "gowns</w>": 38029, "grove": 31756, "congratulation</w>": 24751, "geo": 5038, "tempted</w>": 26226, "datascience</w>": 15748, "tattoo": 15980, "takeaways</w>": 32080, "licensed</w>": 18752, "brien</w>": 13504, "edor": 30184, "contemplating</w>": 33854, "ibles</w>": 44102, "\u00e2\u013b\u00a9\u00e2\u013b\u00ab</w>": 31636, "alberta</w>": 11048, "happy</w>": 900, "yelled</w>": 39199, "reali": 4185, "mother</w>": 3050, "vic</w>": 4412, "cats": 38800, "perrie</w>": 32691, "jfk</w>": 18486, "ascen": 20767, "\u00f0\u0141\u00a6\u0127</w>": 28800, "hollyo": 41525, "doch</w>": 25101, "\u013b</w>": 503, "\u00e2\u012b\u012a</w>": 45451, "accomp": 24985, ",,</w>": 8844, "masc": 23564, "strangerthings</w>": 43271, "guan</w>": 42406, "morris</w>": 9090, "solidar": 10415, "rott": 34806, "sketched</w>": 38581, "preliminary</w>": 20997, "curator</w>": 20753, "ashley</w>": 8957, "iling</w>": 3299, "inan</w>": 26204, "zeus</w>": 32800, "medway</w>": 42286, "fought</w>": 10844, "dexter": 45049, "gare": 5633, "mccul": 38833, "re</w>": 810, "stat</w>": 15216, "expanded</w>": 18390, "gow</w>": 33788, "obse": 8433, "tec": 17381, "wsl</w>": 43706, "koz": 29598, "meadow": 25213, "cleavage</w>": 44165, "___</w>": 13530, "sy": 974, "dido</w>": 31725, "conn": 41836, "buster</w>": 12094, "icons</w>": 15553, "pox</w>": 43649, "skinny</w>": 15457, "situations</w>": 19096, "\u00f0\u0141\u0134\u00af</w>": 7018, "nct</w>": 20319, "pw</w>": 16067, "\u00f0\u0141\u0130\u00a9</w>": 37701, "syfy</w>": 32047, "hal</w>": 8708, "lancashire</w>": 20939, "livestock</w>": 22079, "kasi": 45870, "scar</w>": 18088, "itten</w>": 4343, "nuclear</w>": 7279, "sophie": 38648, "damian</w>": 25375, "quo": 3046, "ingdon</w>": 38731, "blair</w>": 14749, "volo</w>": 44791, "filters</w>": 18385, "carpen": 15584, "secon": 1846, "restaurants</w>": 11714, "crypto": 8080, "\u00e2\u0123\u00a9.</w>": 35777, "renee</w>": 23480, "coliseum</w>": 21836, "feng</w>": 33291, "gott": 5089, "lerosis</w>": 35455, "tribe": 19943, "longevity</w>": 35354, "\u00f0\u0141\u013a\u0132": 38586, "ideas</w>": 4452, "rez": 27597, "guessed</w>": 28005, "vio</w>": 20324, "pres": 1385, "copenhagen</w>": 17390, "snat": 18457, "announced</w>": 4103, "scar": 4171, "mustang": 42361, "mahon": 45864, "produces</w>": 19940, "annoyed</w>": 29863, "sbi</w>": 41369, "thoroughbred</w>": 43248, "ramsay</w>": 26259, "llers</w>": 26426, "escor": 24360, "justicefor": 25812, "stewardship</w>": 36720, "mcdonnell</w>": 34360, "greenfield</w>": 39924, "villages</w>": 17621, "caregivers</w>": 35909, "host": 17403, "afer": 44707, "sonline</w>": 23412, "brown": 6315, "arrival</w>": 9073, "grote": 47207, "ako": 44027, "wilt</w>": 47357, ".<</w>": 29442, "\u00e2\u0142\u0122\u00e2\u0142\u0122\u00e2\u0142\u0122\u00e2\u0142\u0122\u00e2\u0142\u0122\u00e2\u0142\u0122\u00e2\u0142\u0122\u00e2\u0142\u0122": 46063, "lain</w>": 17151, "perry</w>": 7899, "uccino</w>": 30409, "mozam": 26648, "strava</w>": 34625, "suite</w>": 9346, "traveltips</w>": 36260, "bber</w>": 7933, "heartless</w>": 47022, "sehun</w>": 17705, "paragu": 38021, "jf": 31130, "ecz": 43530, "weigh</w>": 17346, "spraying</w>": 39224, "yorker</w>": 23865, "assigned</w>": 25767, "bot": 4136, "barn</w>": 10942, "tonga</w>": 37882, "commodities</w>": 30350, "thunder": 6161, "laser": 25607, "behindthe": 21104, "romain</w>": 48897, "classi": 2507, "rial</w>": 15200, "lovethem</w>": 48298, "afghanistan</w>": 9836, "vernon</w>": 18348, "orphaned</w>": 46792, "faber": 43461, "thunderbirds</w>": 44286, "jid</w>": 24403, "bowel</w>": 36880, "\u00f0\u0141\u0130\u0127": 17685, "\u00f0\u0141\u013c\u0139</w>": 22783, "snatched</w>": 44821, "social</w>": 2346, "laliga</w>": 32383, "parasites</w>": 46175, "carameli": 41739, "font": 37610, "drown</w>": 28571, "tica</w>": 9669, "notification</w>": 22512, "atari</w>": 21549, "swirl</w>": 35795, "copolitics</w>": 45846, "edu": 11757, "third</w>": 3981, "uman</w>": 27112, "\u00dc": 152, "aud</w>": 19711, "heavymetal</w>": 39804, "connected</w>": 27506, "spir": 3745, "plastic": 15645, "vary</w>": 18855, "...?</w>": 16388, "success</w>": 3034, "rip": 10353, "adas</w>": 23250, "behin": 2335, "finley</w>": 41652, "rainier</w>": 37850, "ble": 1447, "cnet</w>": 47487, "morgen</w>": 35106, "randolph</w>": 29899, "cooking": 39248, "pilgrimage</w>": 24335, "snl</w>": 16011, "ateau</w>": 16359, "indira</w>": 43887, "sixty</w>": 32588, "divisi": 39196, "ahe": 27688, "leagueof": 26022, "kam": 4104, "ronnie": 45257, "chuck</w>": 9894, "free": 2065, "kona</w>": 30203, "phil": 2821, "tennis</w>": 5298, "deeplear": 22181, "raa</w>": 44344, "kkkk": 15834, "santo": 29631, "attach": 43676, "blades</w>": 16893, "kl</w>": 14134, "anchors</w>": 37830, "husband</w>": 6179, "aky</w>": 11977, "rendition</w>": 28891, "flaw</w>": 34978, "eastman</w>": 48280, "bendigo</w>": 48197, "taran": 32370, "percentage</w>": 19477, "sq": 9370, "jason</w>": 5395, "ramapho": 43963, "shan": 5171, "crossing</w>": 8673, "sriracha</w>": 42743, "stunt</w>": 19905, "mcke": 27424, "barista</w>": 31078, "vik</w>": 17181, "hay": 4871, "\u013a": 246, "construct</w>": 24467, "understatement</w>": 38296, "teaser</w>": 8982, "sop</w>": 19194, "brother": 12697, "brother</w>": 3157, "ie</w>": 1718, "advancement</w>": 35437, "sperm</w>": 35781, "cible</w>": 28873, "shers</w>": 14141, "orderly</w>": 43457, "norm</w>": 22457, "recs</w>": 33069, "wendy": 31616, "\u00f0\u0141\u0136\u00ac</w>": 44227, "resh</w>": 47432, "marrying</w>": 40507, "deserves</w>": 9079, "ucl</w>": 13647, "maymay</w>": 33853, "_:</w>": 13109, "nacional</w>": 38782, "grotto</w>": 45260, "emerald": 46878, "itical</w>": 48767, "gari": 40898, "tarmac</w>": 44294, "adio</w>": 15060, "critters</w>": 35423, "magnific": 9725, "puppy</w>": 6829, "quilt</w>": 23977, "youts</w>": 22737, "prome": 34355, "\u00f0\u0141\u0131\u0141\u00ef\u00b8\u0131</w>": 42627, "yards</w>": 7550, "fresher</w>": 49284, "warri": 4109, "genuinely</w>": 20006, "salzburg</w>": 43396, "kids": 15561, "\u00a6": 99, "bloomberg</w>": 21238, "defend</w>": 11397, "commit</w>": 11797, "orche": 8004, "redmond</w>": 39627, "spectator</w>": 32372, "adoption</w>": 11544, "jessica": 45421, "wou": 5279, "casual</w>": 10129, "ace</w>": 804, "isa": 11034, "rehman</w>": 39206, "pere": 8665, "tai": 6511, "lebron</w>": 11971, "wl</w>": 9613, "minister</w>": 3569, "glamping</w>": 46167, "idaho</w>": 15165, "akin</w>": 13601, "trib</w>": 45151, "fe": 623, "sana</w>": 19434, "\u00f0\u0141\u0131\u00bc\u00e2\u0122\u012f\u00e2\u013b\u0122\u00ef\u00b8\u0131</w>": 28955, "tubing</w>": 40794, "recess</w>": 38182, "sith</w>": 41499, "\u00e2\u013f\u00a5</w>": 36914, "wich": 9759, "smelling</w>": 32493, "sky</w>": 2390, "vive</w>": 24004, "ext": 5711, "inauguration</w>": 16805, "brum</w>": 28078, "sizing</w>": 28330, "holders</w>": 10074, "marvell": 26576, "rj": 26016, "organising</w>": 22787, "bilities</w>": 13582, "\u00e2\u013f\u00a4\u00ef\u00b8\u0131\u00f0\u0141\u013a\u013a</w>": 41800, "skey</w>": 37453, "ageing</w>": 25349, "anush": 22765, "wasn</w>": 5044, "rum": 9223, "mckinney</w>": 33554, "intermission</w>": 44805, "unstoppable</w>": 23484, "trumpp": 45550, "something": 28316, "gir</w>": 25481, "instructors</w>": 31998, "dow</w>": 10688, "threw</w>": 12746, "inexpensive</w>": 38614, "tography</w>": 33968, "lone": 22220, "leopard</w>": 15931, "west": 2973, "petra</w>": 31300, "enfor": 10592, "whose</w>": 6933, "frat</w>": 39292, "transportation</w>": 10911, "plata</w>": 46456, "twell</w>": 30162, "kili": 24386, "atsu</w>": 26531, "\u00f0\u0141\u0134\u0143</w>": 33848, "\u00f0\u0141\u0134\u013d\u00f0\u0141\u0134\u013c": 37994, "geo</w>": 11604, "rhapso": 32532, "terracotta</w>": 45123, "tiff": 11112, "haas</w>": 27443, "giu": 17931, "centennial</w>": 20895, "walled</w>": 36567, "lenovo</w>": 25886, "deliberately</w>": 35163, "weekly": 34652, "spokesman</w>": 31632, "feat": 1703, "eventu": 14055, "files</w>": 7850, "sex</w>": 5937, "chuffed</w>": 27233, "afridi</w>": 37651, "canaria</w>": 47117, ",-</w>": 29821, "verma</w>": 41261, "chik</w>": 45455, "overseas</w>": 15100, "shing</w>": 1743, "emojis</w>": 27870, "demar</w>": 46566, "pesto</w>": 26186, "alex": 2959, "\".</w>": 2811, "guar": 4119, "amsterdam</w>": 9441, "looo": 20902, "birmin": 37482, "uber": 25896, "wack": 22880, "speake": 46077, "slept</w>": 20388, "gler</w>": 34649, "bewithyou</w>": 36787, "bully</w>": 20190, "dioxide</w>": 38102, "ksu</w>": 43496, "smart": 5383, "lebanon</w>": 11695, "bavaria</w>": 39977, "shat": 12169, "sports</w>": 2054, "lawmaker</w>": 37169, "devops</w>": 21504, "tality</w>": 15631, "brai": 25048, "dundas</w>": 39300, "+.</w>": 25238, "sville": 44580, "amex</w>": 46390, "alta": 24470, "alexa</w>": 16273, "lie": 6570, "surfing</w>": 15762, "\u00f0\u0141\u0132\u00b0": 35378, "hii</w>": 42315, "\u00f0\u0141\u0133\u0130</w>": 32568, "fairmont</w>": 41547, "supernova</w>": 39843, "tell</w>": 2330, "bodies</w>": 9799, "haiku</w>": 19542, "elling</w>": 2220, "pam": 8228, "roswell</w>": 45116, "logging</w>": 24444, "loy": 4519, "cookout</w>": 39743, "liquidity</w>": 42812, "ronan</w>": 34971, "geelong</w>": 34555, "tulips</w>": 30886, "green</w>": 1901, "hamil": 6725, "ppc</w>": 27778, "ate</w>": 671, "waiver</w>": 42866, "rear": 39652, "aia</w>": 27046, "informs</w>": 48440, "nesses</w>": 20107, "cairngor": 44067, "\u00e2\u0122\u0132</w>": 34512, "tools</w>": 5771, "le": 534, "fett</w>": 37979, "rts</w>": 8496, "accuracy</w>": 18423, "twitch": 13251, "noaa</w>": 27557, "footprints</w>": 39640, "sion": 5676, "lar</w>": 1652, "xe": 42886, "dity</w>": 16436, "anushka</w>": 39822, "fennel</w>": 28689, "australians</w>": 31488, "bond</w>": 6826, "morrissey</w>": 30040, "monds</w>": 20317, "cryo": 32215, "dusted</w>": 38274, "anja</w>": 43440, "limb</w>": 32363, "uw</w>": 19166, "trending</w>": 6087, "bandwidth</w>": 48859, "bnb</w>": 20010, "wwe</w>": 5290, "symphony</w>": 11180, "bn": 10496, "brightest</w>": 26159, "twitterstorians</w>": 35389, "denver": 27847, "quan": 11669, "corbyn</w>": 14026, "hilar": 37337, "magnificent</w>": 10724, "cry": 2837, "gem</w>": 7613, "cmu</w>": 43046, "beverley</w>": 39165, "graders</w>": 10930, "marais</w>": 47913, "belief</w>": 14802, "recognizes</w>": 26909, "shut": 8702, "\u00f0\u0141\u0130\u00a4</w>": 15690, "je</w>": 8776, "soup</w>": 7077, "justic": 30399, "shu": 2872, "flames</w>": 13441, "ush": 12001, "manipul": 19237, "cancellation</w>": 38765, "sebastian": 43792, "benefitting</w>": 47222, "siriusxm</w>": 29833, "man</w>": 786, "dc</w>": 2743, "enfield</w>": 27808, "juco</w>": 31570, "practiced</w>": 36749, "\u00e2\u0140\u0138": 21327, "suspend</w>": 41007, "omnibus</w>": 44760, "debra</w>": 33233, "schu": 11318, "sabbath</w>": 26008, "espa": 37301, "pamper</w>": 44345, "\u00f0\u0141\u0134\u00af\u00f0\u0141\u0134\u00af</w>": 44070, "muk</w>": 32600, "amiga</w>": 35329, "gue</w>": 2917, "missi": 3008, "womenshistorymonth</w>": 24982, "madewithunity</w>": 43190, "hoop</w>": 19573, "beavs</w>": 43909, "naked</w>": 11478, "tomb</w>": 15582, "achs</w>": 41195, "kot</w>": 20701, "vertigo</w>": 42477, "\u00f0\u0141\u00a4\u00a3": 9665, "httr</w>": 49372, "freely</w>": 24436, "beets</w>": 36087, "hamburger</w>": 33928, "moor": 14817, "actions</w>": 6271, "shred": 19756, "pram": 47774, "terrorist</w>": 10575, "counseling</w>": 25000, "purple": 17837, "groundwater</w>": 39457, "highlighted</w>": 22252, "eastbourne</w>": 38455, "usp": 26651, "valuable</w>": 10056, "discarded</w>": 45197, "rowley</w>": 48793, "bvb</w>": 22454, "color": 4036, "wilton</w>": 46638, "toff</w>": 27319, "notebook</w>": 16365, "dammit</w>": 31057, "\u00eb\u0135": 30850, "pile": 44403, "rugby</w>": 4964, "doi</w>": 36361, "tuf": 44510, "browning</w>": 32241, "shutters</w>": 46894, "refreshed</w>": 35925, "mahogany</w>": 33084, "jai</w>": 13819, "tcu</w>": 26791, "nicky": 28893, "hua</w>": 22138, "financial</w>": 4930, "icecream</w>": 21334, "snail</w>": 23132, "miami": 15106, "father": 11607, "corbin</w>": 35578, "\u00e3\u0125\u00bb\u00e3\u0125\u00bb": 13949, "abram": 33255, "betting</w>": 14319, "jerome</w>": 19876, "swire</w>": 42753, "inspire</w>": 8583, "fw</w>": 5277, "revisit</w>": 26568, "european": 26712, "camino</w>": 28529, "catfish</w>": 26077, "\u00f0\u0141\u0129\u00b9\u00f0\u0141\u0129": 36250, "uly": 33220, "voyage</w>": 16299, "lj</w>": 32273, "nyrd</w>": 47936, "mcu</w>": 30403, "begin": 19197, "alter": 4949, "thur": 1837, "dangerous</w>": 7350, "savvy</w>": 29278, "alay": 30289, "thyme</w>": 29805, "ludo": 40141, "resil": 10932, "carney</w>": 34194, "hems": 32451, "tail": 7156, "omo</w>": 11066, "plume</w>": 39495, "acmilan</w>": 36500, "vez": 35987, "weapon</w>": 10537, "powerof": 31961, "wealth</w>": 7904, "jessic": 14881, "francis": 22187, "let</w>": 1094, "crows</w>": 27134, "kri": 3679, "ctc</w>": 34123, "unpacking</w>": 43589, "wef</w>": 23313, "alphabe": 45796, "tin": 1310, "srl</w>": 33808, "pew</w>": 30783, "municipality</w>": 29987, "galicia</w>": 47927, "grapevine</w>": 47619, "wrec": 20879, "schau": 35830, "decorations</w>": 19158, "friendly</w>": 4681, "client": 48528, "buen": 15640, "gettysburg</w>": 37062, "fluor": 45127, "principal": 33599, "paragraph</w>": 28499, "delle</w>": 35963, "kians</w>": 44010, "shortage</w>": 19910, "dix": 45838, "congrats</w>": 1887, "tipoff</w>": 44521, "\u00e7</w>": 419, "tek": 17489, "raisin</w>": 36864, "implementation</w>": 15102, "palermo</w>": 40635, "\u00e0\u00ae\u0141</w>": 45263, "ode": 19125, "scales</w>": 22891, "absolutely</w>": 4703, "dap": 12149, "ktm</w>": 33989, "ike</w>": 19696, "forehead</w>": 25394, "graces</w>": 38629, "preston</w>": 15179, "gifts</w>": 5836, "madame</w>": 23507, "harley": 24702, "viny": 40990, "elle": 12818, "twinkle</w>": 36545, "architec": 3359, "gupta</w>": 15905, "lms</w>": 30381, "quiz</w>": 8344, "eura": 32605, "iheartawards</w>": 18811, "fridayfeeling</w>": 11952, "dprint</w>": 46644, "sou": 1101, "patreon</w>": 17165, "histor": 2993, "pepp": 34425, "routine</w>": 12319, "amused</w>": 30212, "comments</w>": 6606, "wb": 10726, "miniature</w>": 16377, "niallo": 22855, "andthe": 22111, "apor": 21871, "dismiss</w>": 43287, "gamer</w>": 11598, "gardenchat</w>": 46292, "mikequindazzi</w>": 33551, "vibration</w>": 37456, "edy</w>": 4144, "luxe</w>": 26373, "\u00f0\u0141\u0133\u00bc": 25270, "coral</w>": 12054, "nissan</w>": 11082, "\u00e2\u013c\u00be</w>": 34717, "cultivation</w>": 41539, "horned</w>": 34526, "consuming</w>": 30607, "promotion</w>": 9259, "soils</w>": 34891, "mim</w>": 39379, "jc</w>": 11517, "geni": 22334, "perman": 9018, "aggression</w>": 28900, "sabc</w>": 30010, "mascot</w>": 13983, "spec</w>": 18596, "vell</w>": 32997, "juke": 32519, "azores</w>": 42826, "gusto</w>": 37937, "regarded</w>": 32017, "burt</w>": 27162, "impactful</w>": 41631, "recruit</w>": 15585, "explain</w>": 7304, "exor": 24506, "jason": 10009, "koch</w>": 25331, "gyp": 40053, "\u00ef\u00b8": 842, "ci</w>": 5798, "enabling</w>": 23590, "regi": 1608, "tional": 22460, "santa": 22175, "tasmanian</w>": 45102, "singer</w>": 5108, "avar": 33423, "dori</w>": 49270, "hey": 10759, "riz</w>": 35411, "\u0142": 254, "airshow</w>": 27139, "drayton</w>": 49044, "propaganda</w>": 14718, "bellletstalk</w>": 42695, "instaweather": 43078, "younger</w>": 10414, "\u00e3\u0127\u0142</w>": 25781, "oti</w>": 45564, "aided</w>": 48707, "(\u00f0\u0141\u0135\u00b8:</w>": 44422, "reen": 21638, "icular</w>": 40660, "ibrahim</w>": 20816, "akistan</w>": 46221, "wyoming</w>": 18693, "adjusted</w>": 30515, "government</w>": 3149, "mlb": 21039, "runners</w>": 10571, "events</w>": 3667, "pushes</w>": 23828, "carlo</w>": 15266, "hes": 30553, "zia</w>": 13764, "sonia</w>": 20409, "leaving</w>": 5216, "nadia</w>": 27487, "downers</w>": 43739, "mountaine": 24841, "madhya</w>": 48302, "gate": 8071, "baths</w>": 19442, "snorkel": 44285, "popcorn</w>": 15034, "helen</w>": 11291, "didier</w>": 45614, "unil": 32388, "run</w>": 1934, "fate</w>": 11734, "iris</w>": 16437, "stateu</w>": 44248, "phat</w>": 42492, "athan": 41260, "latte</w>": 17697, "discovering</w>": 17967, "breakable</w>": 30691, "cannab": 7577, "drin": 3375, "berkshire</w>": 27300, "aparthe": 25121, "hurry</w>": 10921, "spitfire</w>": 31126, "fraser": 39082, "marley</w>": 16504, "bread</w>": 5066, "lester": 23157, "icia</w>": 11774, "andr": 22661, "fatt": 44131, "waiter</w>": 32946, "screamed</w>": 35427, "albany</w>": 17359, "hardwood</w>": 28167, "armb": 37096, "signalling</w>": 48426, "endo</w>": 15830, "brewers</w>": 17618, "smiling</w>": 9200, "aws</w>": 19658, "stacking</w>": 39836, "prom</w>": 7944, "scam": 17620, "lil": 6012, "crypt</w>": 37814, "buccane": 32830, "thelast": 23495, "rwanda</w>": 15427, "thon</w>": 8924, "umin</w>": 31542, "dats</w>": 48674, "advan": 33411, "pn": 14431, "deception</w>": 33046, "assim</w>": 36394, "yates</w>": 27677, "entennial</w>": 43088, "chatbots</w>": 43994, "unci": 25521, "enez</w>": 33110, "spiration</w>": 38126, "inside</w>": 2912, "pun": 2707, "prehistoric</w>": 32750, "phase</w>": 8304, "socialmedi": 23813, "utmost</w>": 42352, "thear": 43283, "durability</w>": 43671, "such</w>": 2046, "genoa</w>": 43993, "frontier</w>": 18253, "archae": 10121, "pinkfloyd</w>": 48520, "badger</w>": 22363, "commitments</w>": 32136, "lady</w>": 2909, "consolidation</w>": 41111, "uswnt</w>": 35255, "hough</w>": 44529, "goddess</w>": 10808, "apart</w>": 7803, "religion</w>": 8803, "moneti": 38056, "\u00f0\u0141\u013a\u012f#</w>": 42357, "bbce": 33818, "hila</w>": 38837, "bagels</w>": 37489, "mistakes</w>": 12824, "noon</w>": 2347, "entire</w>": 4709, "pred": 40370, "itarian</w>": 11599, ".'\"</w>": 41558, "dummies</w>": 40899, "episo": 2708, "ony": 9490, "manutd</w>": 20994, "hilariously</w>": 43476, "themes</w>": 17849, "\u00eb\u00b9": 24193, "blanca</w>": 40670, "eerie</w>": 33846, "dolls</w>": 15090, "timel": 23549, "raine</w>": 6871, "independenceday</w>": 25971, "pippa</w>": 47672, "chau": 11263, "exquisite</w>": 17958, "ampli": 15647, "qing</w>": 34339, "lly</w>": 26379, "adu</w>": 24446, "cater": 16634, "oured</w>": 6956, "send</w>": 3625, "jokers</w>": 44101, "bandits</w>": 33940, "gggg</w>": 33513, "mateo</w>": 34991, "odin</w>": 35175, "mz</w>": 33400, "gopdebate</w>": 39806, "extract</w>": 18962, "alias</w>": 40026, "paperback</w>": 17928, "essay</w>": 12751, "facup</w>": 25283, "itself</w>": 7290, "rer</w>": 3407, "werk</w>": 30176, "pcm</w>": 47436, "dir</w>": 8478, "nier</w>": 13014, "az": 854, "pats</w>": 24874, "esto": 31589, "mosch": 47003, "prosecu": 12136, "constan": 38718, "brightly</w>": 36298, "outing</w>": 11251, "accelerator</w>": 25261, "improvis": 32343, "simona</w>": 46277, "siege</w>": 18460, "mer</w>": 2452, "guthrie</w>": 33164, "packs</w>": 11086, "ology</w>": 4627, "daq</w>": 25381, "assessment</w>": 10590, "raiser</w>": 33555, "byes</w>": 47958, "bar</w>": 2411, "leg</w>": 4924, "avgeek</w>": 11114, "infertility</w>": 40701, "okan": 41263, "museum": 15602, "gentle": 7262, "winemaker</w>": 41588, "superleague</w>": 45539, "erp</w>": 28268, "baxter</w>": 26168, "jh</w>": 21485, "dimitri</w>": 48840, "seem": 20043, "edmon": 11275, "foyle</w>": 47902, "pleads</w>": 31425, "yong": 27960, "attracts</w>": 31024, "raspberry</w>": 13615, "confi": 5005, "acacia</w>": 44047, "awg</w>": 46350, "lopez</w>": 12982, "coaster</w>": 15944, "arec": 18136, "metabolic</w>": 34311, "hurst": 44742, "insom": 21755, "percent": 16328, "captured</w>": 8020, "jennifer": 19786, "betis</w>": 45590, "troop</w>": 24054, "md</w>": 4732, "essa</w>": 39125, "regionals</w>": 26043, "hardware</w>": 11957, "confession</w>": 22572, "finn": 28479, "loyed</w>": 29279, "balancing</w>": 23541, "inem</w>": 48876, "spionage</w>": 41838, "casts</w>": 10595, "hook": 30488, "tariq</w>": 42526, "crises</w>": 36403, "ull": 33254, "agos</w>": 32657, "muh": 36335, "eliz": 42844, "skill": 15598, "boca</w>": 26094, "ely</w>": 1273, "xchange</w>": 49132, "wwi</w>": 20194, "bott</w>": 37225, "won</w>": 1749, "\u00f0\u0141\u013c": 2730, "sandra": 33733, "cowell</w>": 39015, "taf": 29660, "yotpo</w>": 26113, "alisa</w>": 38918, "daipur</w>": 47631, "militant</w>": 33629, "meringue</w>": 41661, "arctic</w>": 9138, "thirds</w>": 42582, "awakening</w>": 17017, "burning": 46107, "\u00f0\u0141\u012e\u00b3": 44265, "truelove</w>": 45711, "southwestern</w>": 30157, "\u00f0\u0141\u0129\u00a7": 14660, "stretching</w>": 24423, "newprofilepic</w>": 14754, "hamillhimself</w>": 47324, "min</w>": 3331, "ghe</w>": 28561, "automobile</w>": 25258, "omo": 14478, "lisa</w>": 7424, "mn": 5086, "comforts</w>": 42243, "capu": 44241, "exp</w>": 19066, "ricky</w>": 12814, "intl</w>": 14224, "efficacy</w>": 39937, "destination</w>": 9179, "jog": 37967, "beverly</w>": 16728, "chairing</w>": 42205, "anap": 41566, "{}</w>": 39025, "aces</w>": 5725, "lest": 24372, "monday": 6205, "hawks": 44806, "fursuit</w>": 43083, "law</w>": 2606, "glou": 15989, "marine</w>": 5746, "stan</w>": 2434, "foxnews</w>": 18830, "aiden</w>": 40020, "void</w>": 21561, "miller": 21699, "man": 723, "dps</w>": 34288, "neonatal</w>": 46464, "grapefruit</w>": 28347, "french": 13118, "guardi": 12008, "benn</w>": 39097, "acce": 8564, "brewery</w>": 8850, "gine": 27482, "adjustable</w>": 20476, "purch": 8384, "nobody</w>": 7009, "lgbtq</w>": 14939, "xander</w>": 45601, "abortion</w>": 12336, "up": 1083, "mpton</w>": 27448, "tray": 38470, "blm</w>": 30957, "cont</w>": 21425, "franz</w>": 25449, "royd</w>": 41476, "typical</w>": 9854, "holiday": 13168, "\u00f0\u0141\u0134\u00a5": 12209, "butch</w>": 35102, "afghan</w>": 15919, "round": 9403, "gartner": 43334, "oux": 40960, "kings": 18590, "tras</w>": 30638, "toledo</w>": 19812, "mcr": 29884, "atop</w>": 17455, "regram</w>": 30329, "mimi</w>": 27086, "airport</w>": 3259, "teddy</w>": 11798, "okay</w>": 4917, "ddle": 17633, "senior": 19865, "billboards</w>": 34741, "qaeda</w>": 31246, "cattle": 48799, "cing</w>": 4014, "makeit": 26308, "drilling</w>": 18634, "justintrudeau</w>": 32184, "fittings</w>": 45787, "matchup</w>": 19355, "lakings</w>": 34289, "hta": 23452, "stress</w>": 5843, ",\u00e2\u0122\u00a6</w>": 14601, "rid": 18103, "+/-</w>": 47614, "accessibility</w>": 23407, "hawthorne</w>": 36730, "vf</w>": 25966, "isco</w>": 5736, "quis": 15064, "mydubai</w>": 43475, "destroy": 8308, "renew</w>": 22015, "pless</w>": 17059, "bry": 6587, "vouchers</w>": 23384, "ornamental</w>": 46270, "distill": 41586, "comes</w>": 2091, "tentative</w>": 48238, "\u00c3\u00a8re</w>": 30272, "wein</w>": 37684, "eating</w>": 4371, "bottom": 32314, "woven</w>": 19830, "melb</w>": 28980, "twit</w>": 18704, "commended</w>": 40702, "blackbird</w>": 38526, "felix</w>": 16514, "shrub</w>": 41464, "wreck": 28775, "aties</w>": 40060, "sidekick</w>": 44683, "wethepeople</w>": 48030, "gerry": 29825, "\u00e2\u013e\u012a\u00ef\u00b8\u0131</w>": 13413, "haynes</w>": 30496, "chile</w>": 10022, "cardin": 8457, "neha</w>": 44463, "wasnt</w>": 29607, "brampton</w>": 35124, "trow</w>": 46914, "rable</w>": 10182, "surrealism</w>": 41773, "harlan</w>": 49133, "angling</w>": 36824, "vday</w>": 42055, "stri</w>": 27795, "bags</w>": 6136, "mug</w>": 9722, "eph": 45752, "facilities</w>": 10388, "rudol": 40927, "nationalism</w>": 29867, "infectious</w>": 29157, "porridge</w>": 34924, ".!!</w>": 37805, "tennis": 31504, "inaugur": 11448, "geese</w>": 26413, "treasurer</w>": 26985, "mo</w>": 2080, "chartered</w>": 31298, "atri": 13882, "teach": 2043, "rbc</w>": 37500, "sworn</w>": 21130, "rained</w>": 32310, "itel</w>": 44638, "says</w>": 1563, "ber</w>": 1516, "animals</w>": 4995, "shou": 3890, "dissent</w>": 45154, "xj</w>": 42453, "\u00f0\u0141\u0130\u012b\u00f0\u0141\u0130\u012a</w>": 34008, "canucks</w>": 24321, "ahora</w>": 43113, "vering</w>": 4630, "algorithm</w>": 23295, "ous</w>": 879, "saura": 46532, "accept</w>": 9338, "path</w>": 5035, "interactive</w>": 9456, "cyberpunk</w>": 36896, "yaku": 29572, "\u00f0\u0141\u013b\u0125": 27222, "alco": 6848, "ga</w>": 1531, "kej": 15674, "datab": 11941, "policy": 30173, "bai": 6232, "competitor</w>": 26633, "pierce</w>": 16782, "caric": 25337, "blamed</w>": 32906, "thursday": 11218, "poche</w>": 39022, "coupe</w>": 16773, "crombie</w>": 46162, "pei</w>": 12917, "kak": 10401, "nyu": 43143, "tub": 34907, "wednesdays</w>": 24943, "donaldtrump</w>": 6652, "ram</w>": 2007, "bat</w>": 6575, "imel": 31594, "quel</w>": 21879, "invaluable</w>": 33976, "omer</w>": 17902, "diffic": 6140, "gregor": 33856, "gator": 20216, "\u00f0\u0141\u0129\u00a8\u00f0\u0141\u0129\u00b3</w>": 36819, "owning</w>": 24661, "paperwork</w>": 35785, "stp</w>": 30576, "curi": 12640, "paired</w>": 12433, "^</w>": 317, "ucn</w>": 49036, "marquette</w>": 37624, "spoilt</w>": 35358, "hardrock": 48365, "mich</w>": 23029, "postdoc</w>": 41013, "queu": 32705, "applications</w>": 7341, "epidemi": 44447, "bola</w>": 12840, "cfl": 46320, "outpatient</w>": 46603, "maswar": 47887, "padded</w>": 42253, "wagon</w>": 13260, "ulty</w>": 8036, "surviving</w>": 18609, "lauren": 10456, "stiff</w>": 21441, "tters</w>": 6318, "stgeorge": 43698, "monger</w>": 38928, "messenger</w>": 17389, "spon": 1715, "nickname</w>": 24731, "vas": 5669, "jock</w>": 34485, "joo": 25807, "chard</w>": 17524, "rin</w>": 11739, "brixton</w>": 30056, "bourn</w>": 39143, "desmond</w>": 27821, ":...</w>": 42140, "\u00f0\u0141\u0133\u012f\u00f0\u0141\u0133\u012f": 33012, "reproduction</w>": 35714, "mines</w>": 16211, "calculate</w>": 37656, "csk</w>": 43036, "rather</w>": 5252, "shares</w>": 4974, "alums</w>": 30155, "oswald</w>": 38471, "whiskey</w>": 11610, "gamestop</w>": 39436, "agony</w>": 36977, "\u00f0\u0141\u012e\u013c</w>": 27877, "decadent</w>": 41716, "bartlett</w>": 37130, "\u00dd": 153, "dep": 6079, "aci": 4359, "ronal": 46194, "\u00f0\u0141\u0129\u00a8\u00f0\u0141\u0129\u00a6</w>": 16364, "tomlin</w>": 46649, "helped</w>": 4845, "baja</w>": 28374, "architects</w>": 13290, "innovators</w>": 27834, "autism": 36256, "griffi": 28676, "\u00f0\u0141\u0130\u0141\u00ef\u00b8\u0131</w>": 30243, "calvin</w>": 17345, "royalty</w>": 18296, "bff</w>": 11984, "token</w>": 17134, "dune</w>": 28208, "barbar": 7906, "blogger": 21352, "cushi": 15333, "vius</w>": 41571, "chf</w>": 33021, "schumer</w>": 25313, "bikini</w>": 14531, "hooker</w>": 37891, "improves</w>": 18035, "cuteness</w>": 19342, "gly": 13027, "relax": 6777, "slays</w>": 45648, "halla</w>": 29569, "mere</w>": 10342, "amongst</w>": 12520, "pembrokeshire</w>": 40695, "minnie</w>": 24493, "seldom</w>": 48322, "pest</w>": 9425, "course</w>": 2613, "cliffe</w>": 15170, "exi": 5297, "balti": 8400, "follow": 1964, "rences</w>": 8545, "accreditation</w>": 27015, "megap": 33624, "pol</w>": 7649, "splus</w>": 40866, "lashes</w>": 21015, "\u00e2\u0122\u00a6/</w>": 29842, "ister</w>": 14555, "pur</w>": 6265, "asu</w>": 16001, "gita</w>": 40838, "kx": 28190, "ocu": 22709, "task</w>": 10549, "one</w>": 637, "justi": 14700, "mcguinness</w>": 45299, "net": 1851, "ime</w>": 31151, "scrap": 27950, "tm</w>": 7789, "struggles</w>": 17446, "anor</w>": 16596, "sid": 10117, "lx</w>": 30789, "paa</w>": 32812, "\u00ff</w>": 443, "woodbridge</w>": 49074, "chemist</w>": 23138, "darje": 49089, "ycle</w>": 38089, "emerging</w>": 11113, "isance</w>": 46893, "stormy</w>": 20075, "bloom</w>": 10257, "cleaners</w>": 33258, "ghted</w>": 4963, "idris</w>": 41312, "cun": 12423, "\u00e3\u0122\u012d</w>": 32898, "jewell": 9777, "bhatt</w>": 36143, "hashmi</w>": 35852, "snacking</w>": 46474, "swipe</w>": 31828, "heals</w>": 32384, "lose</w>": 5354, "constant": 32000, "cared</w>": 27675, "anders</w>": 10880, "currently</w>": 3792, "ssel</w>": 19373, "beingsalmankhan</w>": 19637, ":((</w>": 42496, "temples</w>": 24024, "gymnastics</w>": 20116, "resident</w>": 9016, "bridesmaids</w>": 47754, "redux</w>": 43014, "above</w>": 4348, "armen": 13145, "traveller</w>": 22546, "kat": 2844, "warts</w>": 21781, "exited</w>": 37581, "novation</w>": 39753, "irah</w>": 35724, "\u00db": 151, "glend": 38332, "paul</w>": 2597, "springsteen</w>": 28367, "nmd</w>": 43331, "rappers</w>": 30315, "djokernole</w>": 42830, "renov": 9984, "unions</w>": 18353, "inflation</w>": 17497, "honestly</w>": 9155, "trouble</w>": 7848, "trium": 21065, "ged</w>": 3480, "representing</w>": 7561, "shakespe": 9890, "chapp": 20634, "\u00e2\u0128\u0135</w>": 41603, "tb": 1990, "billie</w>": 23990, "recipients</w>": 18940, "eun</w>": 26219, "dairy": 25243, "outre": 14373, "geography</w>": 17101, "lot</w>": 1954, "ssc</w>": 20364, "pkwy</w>": 36827, "twisted</w>": 18233, "cox": 25784, "koto</w>": 29977, "theforce": 40002, "transformed</w>": 17453, "stroller</w>": 47076, "peg</w>": 11207, "concealed</w>": 35419, "daydream</w>": 41587, "honore": 25868, "software</w>": 5847, "nonsense</w>": 19136, "supreme</w>": 7468, "kensing": 21505, "andre": 2657, "ocean": 12941, "unicorn</w>": 15660, "thri": 8713, "whit</w>": 31498, "horizon": 17924, "neither</w>": 14398, "declaring</w>": 33273, "veterinary</w>": 25458, "characters</w>": 6564, "echel": 41233, "yat</w>": 34965, "\u00e0\u00b9\u0126\u00e0\u00b8": 31718, "scandal</w>": 11622, "lamar": 28678, "applause</w>": 22650, "\u00f0\u0141\u0134\u013b": 5305, "niki</w>": 36136, "canvass</w>": 40054, "ga": 1275, "spill": 43933, "extra": 6416, "\u0135</w>": 497, "jait": 28910, "simp": 2542, "statistical</w>": 29349, "divinity</w>": 39754, "trac": 2266, "religi": 4940, "mell": 22531, "bergen</w>": 22918, "aest</w>": 40694, "sover</w>": 31876, "iheartradio</w>": 25934, "going</w>": 1245, "<<</w>": 16482, "feeds</w>": 21788, "wein": 29134, "www</w>": 9667, "kawaii</w>": 26891, "piyush": 36191, "rehearsal</w>": 11482, "ramad": 12736, "restling</w>": 30076, "dungeonsand": 34970, "scully</w>": 36598, "lotus</w>": 13824, "image": 24101, "advertising</w>": 8158, "gota</w>": 36693, "recre": 22148, "arran</w>": 45722, "morality</w>": 34133, "photom": 32223, "tisgarh</w>": 40538, "heughan</w>": 32298, "literacy</w>": 12841, "drought</w>": 13935, "why</w>": 1182, "err</w>": 25346, "aig</w>": 46989, "derman</w>": 29740, "busch</w>": 20475, "planet": 16833, "canadian": 22160, "\u00c3\u00b6r": 31762, "ski": 3327, "typewriter</w>": 42180, "swamp</w>": 16595, "hiking</w>": 9118, "goat": 34082, "retrac": 32735, "peel</w>": 17158, "gabriel": 31684, "atic</w>": 2647, "eline": 46199, "publix</w>": 47985, "ight": 14571, "tiles</w>": 10607, "pinup</w>": 37349, "tok</w>": 27010, "judith</w>": 24047, "jumbo</w>": 24678, "iled</w>": 3358, "psychology</w>": 12352, "\u00e2\u0122\u00bc\u00ef\u00b8\u0131\u00e2\u0122\u00bc\u00ef\u00b8\u0131</w>": 33218, "couture</w>": 14808, "somerhalder</w>": 33990, "groves</w>": 27306, "gwen": 32165, "entirely</w>": 13911, "screened</w>": 31450, "dont": 8094, "uae</w>": 9752, "gundam</w>": 26087, "formula": 24485, "rier": 40714, "carla</w>": 25552, "crescent</w>": 18211, "delgado</w>": 49182, "$)</w>": 39460, "generated</w>": 19450, "cann</w>": 23709, "inj": 5112, "switched</w>": 22869, "fianc": 27752, "owl": 34332, "pcs</w>": 11917, "kingdom</w>": 7364, "repost</w>": 7217, "forge</w>": 19232, "rebe": 25227, "cts</w>": 6936, "kal": 4187, "weighed</w>": 33210, "csu</w>": 31261, "compen": 42079, "pugchat</w>": 42266, "blue</w>": 1746, "mathi": 23014, "heavy": 12048, "neurons</w>": 40442, "calf</w>": 17508, "afg</w>": 33994, "inaugurated</w>": 29011, "bilateral</w>": 25599, "esday</w>": 19553, "lism</w>": 34390, "sketch</w>": 5269, "maidstone</w>": 44395, "pel</w>": 7006, "hauled</w>": 46620, "se</w>": 611, "\u00f0\u0141\u0136\u00ab</w>": 20583, "gory</w>": 7160, "poplar</w>": 38726, "pone</w>": 32183, "woodworking</w>": 29267, "\u00e0\u00b8\u013b</w>": 17639, "idea</w>": 3612, "\u013e</w>": 506, "augustine</w>": 27397, "tened</w>": 13682, "chitec": 39862, "steamed</w>": 29007, "\u00f0\u0141\u013c\u0122": 22400, "\u00e2\u0122\u00a2\u00e2\u0122\u00a2": 15006, "vad": 11880, "dee": 5268, "wade": 40237, "breaking</w>": 2755, "share</w>": 1978, "metro": 7257, "gigab": 34530, "chives</w>": 34921, "vladi": 19320, "bookclub</w>": 34438, "iliary</w>": 32585, "feels</w>": 4808, "opponents</w>": 19664, "gamo</w>": 39325, "\u00f0\u0141\u0130\u00a4": 23490, "bargain</w>": 15076, "answer</w>": 4518, "papa</w>": 12211, "yuh</w>": 42547, "scrimmage</w>": 25216, "more": 5434, "bbc": 5123, "ming": 10868, "milk": 13409, "climate</w>": 4589, "yokohama</w>": 42409, "fixture</w>": 17317, "evil</w>": 6006, "goodfood</w>": 46844, "mariti": 13124, "casm</w>": 35198, "hipsters</w>": 48265, "dialo": 30709, "liked</w>": 7112, "schizophre": 41163, "declining</w>": 29221, "hughes</w>": 11418, "rag</w>": 20687, "omd</w>": 49346, "cinemas</w>": 14845, "suave</w>": 47305, "agarwal</w>": 43117, "combat</w>": 9275, "\u00f4": 176, "apost": 20309, "corpor": 4258, "stax</w>": 32235, "familia</w>": 25622, "dito</w>": 43705, "twd</w>": 19343, "N</w>": 301, "rudy</w>": 22131, "berts</w>": 30205, "\u00e2\u0140\u0138\u00e2\u0140\u0138\u00e2\u0140\u0138\u00e2\u0140\u0138": 40401, "cot": 4718, "devi</w>": 20717, "osprey</w>": 37893, "dhan": 12542, "mett</w>": 28081, "hilde": 45382, "airpollution</w>": 47362, "theno": 37172, "billionaires</w>": 41590, "pita</w>": 27070, "\u00e5\u012a": 42748, "thanksgiving": 45732, "shattered</w>": 26820, "lma": 4493, "broken": 26126, "dain": 32222, "tib": 47868, "foundation</w>": 4058, "eup": 44435, "micropoetry</w>": 35997, "hypo": 10252, "shifted</w>": 34429, "heg": 41995, "csm</w>": 40061, "games</w>": 1955, "bing</w>": 5665, "sophistic": 17646, "sticky</w>": 18887, "smil": 33937, "dirty</w>": 7615, "dio</w>": 1521, "gems</w>": 14355, "\u0133</w>": 495, "nightw": 39956, "baa</w>": 33004, "hain</w>": 23861, "feat</w>": 5611, "strung</w>": 46033, "capp": 16718, "oper": 2796, "arguing</w>": 26549, "harman</w>": 42434, "neo": 14562, "sul</w>": 19879, "devastation</w>": 42452, "getting</w>": 1500, "bots</w>": 13721, "rounder</w>": 37024, "bistro</w>": 21770, "dumping</w>": 31707, "koto": 40945, "lists</w>": 12281, "ng": 10352, "athy": 34488, "gilded</w>": 44341, "plains</w>": 16345, "marsh": 9237, "asure</w>": 3813, "diamond": 18535, "rem</w>": 21637, "ick": 1168, "jared</w>": 12571, "eon</w>": 31915, "uj": 33266, "bremen</w>": 39861, "zon</w>": 14618, "newyearseve</w>": 37587, "dunno</w>": 24502, "obstac": 24075, "whites</w>": 18835, "spla": 4809, "queries</w>": 32958, "nicholas</w>": 13148, "???</w>": 3824, "teenager</w>": 19338, "elio</w>": 47943, "nap": 6568, "torn": 8572, "kms</w>": 24996, "lololol</w>": 34738, "itton</w>": 25707, "seva</w>": 42604, "platt</w>": 40097, "efficiency</w>": 11823, "seen": 36273, "sigma": 45075, "classification</w>": 26612, "eds</w>": 1941, "wow</w>": 2781, "pra": 1865, "aturday</w>": 29027, "\u00f0\u0141\u0132\u00ac</w>": 44238, "fortn": 14428, "casualty</w>": 31222, "manipur</w>": 47757, "technologies</w>": 10040, "toasted</w>": 23533, "skc</w>": 44551, "turtle</w>": 10912, "joey</w>": 10455, "noor": 46978, "flair</w>": 24938, "caber": 29062, "fasten": 44990, "tallest</w>": 19774, "contr": 22871, "yale</w>": 17157, "organisms</w>": 37041, "danielle</w>": 15292, "lev</w>": 29950, "akan": 43678, "amel</w>": 10960, "genres</w>": 30340, "outskirts</w>": 42088, "possibility</w>": 18517, "dalailama</w>": 35849, "coordinating</w>": 40075, "sevilla</w>": 24947, "fresno</w>": 20995, "\u00f0\u0141\u013a\u012f</w>": 1754, "mula</w>": 40937, "speaker</w>": 4914, "!'</w>": 13222, "partners</w>": 5568, "advertisers</w>": 45472, "stret": 12265, "federico</w>": 40539, "guilt</w>": 26354, "bandra</w>": 41393, "vania</w>": 10998, "dodgers</w>": 12422, "(\u00f0\u0141\u0135\u00b8</w>": 45204, "medic": 3602, "ivanka</w>": 37914, "surfaces</w>": 20746, "flipkart</w>": 33154, "simi</w>": 38073, "khil": 34101, "nominate</w>": 17122, "rye</w>": 17409, "mcdon": 12171, "cuba</w>": 11576, "conflict</w>": 10397, "steve</w>": 3803, "struggle</w>": 8443, "\u00e2\u013e\u012f": 20872, "sustainable</w>": 7078, "thar": 14396, "flaw": 14268, "jump</w>": 6423, "fantasy</w>": 5267, "workday</w>": 29735, "der</w>": 801, "shul": 30721, "sued</w>": 22225, "courte": 5088, "societal</w>": 40058, "recommendations</w>": 16516, "cto</w>": 17445, "cad": 6297, "bushes</w>": 37578, "\u00d6": 146, "campers</w>": 26619, "leven</w>": 34729, "sorted</w>": 13221, "foreig": 26497, "asan</w>": 17841, "smartcities</w>": 34822, "jeans</w>": 10157, "endurance</w>": 21027, "brux": 49093, "holm</w>": 12739, "pian</w>": 24637, "lw": 40515, "reshi</w>": 39435, "biscuit</w>": 18731, "writer</w>": 4422, "doomsday</w>": 41791, "anas": 31382, "omega</w>": 13465, "feet</w>": 4804, "walt": 23535, "olf</w>": 16346, "\u00f0\u0141\u012e\u013c": 49004, "dt": 13104, "welp</w>": 28391, "du</w>": 3686, "qui": 1912, "air": 1281, "instal": 38805, "hye": 32724, "happen</w>": 4506, "jurisdic": 37714, "pancakes</w>": 15308, "pri": 955, "newrelease</w>": 34793, "tine</w>": 22341, "homicide</w>": 21520, "mound</w>": 21414, "appen": 37201, "skillet</w>": 40568, "horseman</w>": 48885, "marj": 38639, "ghead</w>": 40783, "packets</w>": 40448, "brexit</w>": 5801, "horses</w>": 8809, "kabo": 47974, "aland</w>": 6819, "aburger</w>": 46660, "revolving</w>": 47230, "ilysm</w>": 29228, "trad": 48716, "houston": 16564, "esis</w>": 12414, "ences</w>": 3777, "lw</w>": 35115, "horseracing</w>": 30693, "appreciates</w>": 36573, "duration</w>": 31663, "digitalmarketing</w>": 15299, "acion</w>": 24968, "swell": 35538, "sophisticated</w>": 20833, "fram": 27987, "B</w>": 289, "toom": 27550, "wear": 12206, "bloomfield</w>": 40342, "thms</w>": 19874, "circle": 33574, "grid": 29067, "ennial</w>": 14220, "sensu": 28157, "fore</w>": 1332, "madri": 5529, "crusher</w>": 44923, "mali": 6701, "baller</w>": 25655, "content</w>": 4750, "valentine": 11208, "propri": 28243, "noi": 43115, "bigger</w>": 6806, "\u00b1</w>": 365, "reigning</w>": 28409, "lpc</w>": 44092, "lakota</w>": 45510, "observ": 9050, "metz</w>": 40506, "returns</w>": 5020, "affordable</w>": 8926, "anna": 13821, "ftw</w>": 19298, "veled</w>": 15370, "newfoundland</w>": 28079, "reem</w>": 48891, "rau": 27744, "stfu</w>": 47000, "gnation</w>": 45912, "gong</w>": 28486, "osa": 16340, "imf</w>": 28403, "baptist</w>": 13274, "tista</w>": 25580, "alabama</w>": 8422, "truth": 21335, "honouring</w>": 37754, "wwx</w>": 47431, "fait</w>": 20567, "villain</w>": 15425, "trips</w>": 12292, "wiiu</w>": 40980, "creativity</w>": 9636, "unfold</w>": 38681, "heinrich</w>": 47877, "friend": 3017, "abundant</w>": 31611, "sheriff</w>": 10309, "rh</w>": 22404, "detour</w>": 31211, "transformer</w>": 38235, "flaws</w>": 30492, "wanda</w>": 25070, "trix</w>": 41017, "\u00f0\u0141\u0127": 22010, "folly</w>": 41408, "koff</w>": 47303, "stere": 9229, "prized</w>": 38769, "cornell</w>": 20859, "gn": 2455, "kendricklamar</w>": 47020, "vol</w>": 7945, "alised</w>": 25099, "commodore</w>": 31129, "destinations</w>": 16981, "gameart</w>": 31490, "ayesha</w>": 46570, "andum</w>": 47266, "nowhere</w>": 14108, "dada</w>": 31325, "ancestral</w>": 41615, "program</w>": 2737, "sour": 2235, "aso": 30343, "wheat": 20505, "lagun": 18500, "barren</w>": 46743, "believes</w>": 12017, "bead</w>": 23557, "zzzz</w>": 43103, "dealing</w>": 13138, "genetically</w>": 36745, "aura</w>": 27728, "spad": 45362, "challenged</w>": 17380, "ccu</w>": 49023, "\u00e2\u013f\u00a3</w>": 25623, "infant</w>": 19192, "potted</w>": 48581, "rendous</w>": 49403, "ynna</w>": 48292, "arrogant</w>": 40582, "playlists</w>": 47183, "mire</w>": 30140, "prosecco</w>": 28839, "member": 29566, "aii</w>": 22478, "professor</w>": 6092, "allies</w>": 17277, "3": 18, "abun": 20544, "breakers</w>": 22270, "creek</w>": 5526, "nah": 26421, "individuals</w>": 11990, "liven": 41057, "incompetent</w>": 45069, "idf</w>": 28987, "botany</w>": 22612, "customerservice</w>": 40611, "\u012f</w>": 491, "lude</w>": 28755, "eto": 27829, "ambassador</w>": 6795, "joy</w>": 4273, "\u00e2\u0123\u00a3</w>": 16845, "sauvi": 30116, "redd</w>": 40618, "worldenvironmentday</w>": 47522, "heidel": 42927, "textured</w>": 32168, "fei</w>": 34217, "fbi</w>": 10293, "sheppard</w>": 37304, "bride</w>": 8964, "ceremonial</w>": 33281, "sc</w>": 3219, "necessity</w>": 33163, "bank</w>": 2723, "toad</w>": 26096, "many": 28484, "ohwx</w>": 47993, "chu</w>": 13622, "number": 44078, "lindsay": 29846, "premise</w>": 45952, "quicker</w>": 29211, "ore": 3580, "skull": 34068, "contempl": 21924, "emra": 39259, "eni</w>": 17538, "derek</w>": 11205, "cla</w>": 20636, "unicef": 38286, "demanding</w>": 17099, "limitless</w>": 35833, "rob</w>": 6442, "G": 38, "food</w>": 1559, "baum</w>": 19840, "hateful</w>": 36418, "geothermal</w>": 38413, "mire": 38140, "progression</w>": 24772, "slight</w>": 14297, "pollock</w>": 37614, "bronze</w>": 8459, "catholic": 20382, "daries</w>": 18184, "mcdowell</w>": 34119, "princeton</w>": 22433, "spr</w>": 19417, "shining</w>": 10485, "profiles</w>": 22070, "\u00cf": 139, "foren": 16526, "rican</w>": 30958, "kash</w>": 21371, "^_^</w>": 15995, "josh": 9998, "brought</w>": 4222, "ingham": 24497, "insurtech</w>": 28716, "\u00e2\u0138\u00ba</w>": 12086, "ando": 35950, "museumweek</w>": 37996, "roundtable</w>": 19386, "risk</w>": 4213, "prith": 39173, "indirec": 26398, "grace": 13225, "loveis": 30931, "gin": 3374, "community</w>": 1927, "\u00e0\u00b8\u012a": 47608, "historical</w>": 8039, "leads</w>": 5335, "cassini</w>": 46554, "broke</w>": 6509, "salinas</w>": 41990, "km": 29954, "work": 1636, "lavish</w>": 35443, "triad</w>": 45602, "poppy": 32194, "timer</w>": 19725, "pye": 31099, "mbps</w>": 44896, "warship</w>": 47846, "almost</w>": 2671, "vis": 1301, "anup": 29617, ".....#</w>": 38867, "fcc</w>": 21240, "cups</w>": 11463, "southeast</w>": 13942, "\u00e5</w>": 417, "ki": 848, "pick</w>": 3142, "mutations</w>": 39651, "ticon</w>": 45996, "away": 21088, "rhys</w>": 28647, "managed</w>": 7928, "sterone</w>": 39418, "ourable</w>": 24126, "ttu</w>": 44006, "inc</w>": 4438, "piccad": 33876, "colin": 20989, "brendan": 35134, "nei": 9366, "cheerleading</w>": 36366, "medallion</w>": 43469, "isa</w>": 6536, "\u00d1\u0123": 23669, "\u00f0\u0141\u0133\u0133": 14955, "revit": 26367, "ensuring</w>": 19403, "recharge</w>": 29396, "guggen": 35086, "anew": 39084, "dug": 22743, "sisi</w>": 37892, "ugh</w>": 12755, "orda": 33462, "aspiring</w>": 21862, "8</w>": 279, "anxi": 9021, "aste": 25033, "?!</w>": 2835, "western</w>": 4463, "something</w>": 2006, "goodbye</w>": 6968, "atif</w>": 41592, "strategic</w>": 10246, "confidential</w>": 28712, "betsy</w>": 28946, "fbf</w>": 20004, "ild</w>": 17164, "javier</w>": 23307, "mosquit": 39699, "yuki</w>": 34010, "stronger</w>": 9245, "deutsch": 30389, "..\"</w>": 15229, "generations</w>": 12247, "pics</w>": 2559, "apprentice": 19122, "\u00e3\u0125\u00ac": 32965, "expert</w>": 6284, "canc": 43189, "flamen": 28826, "tter": 18691, "portfolio</w>": 11938, "alien": 22846, "firmware</w>": 42691, "paki": 3438, "gbp</w>": 27391, "invincible</w>": 38052, "glit": 21079, "continuously</w>": 29634, "computing</w>": 12732, "icing</w>": 7676, "9": 24, "sustained</w>": 22699, "cassidy</w>": 21757, "cosm": 37486, "fragrant</w>": 37030, "tuscal": 42638, "disco": 2475, "mble</w>": 4756, "haran</w>": 27921, "versi": 8934, "today</w>": 721, "collaborators</w>": 45901, "amination</w>": 30355, "nyc": 13304, "legg": 18474, "deadline": 47209, "ketchup</w>": 26724, "sindia</w>": 48038, "appreciative</w>": 45074, "nightly</w>": 28868, "marie": 20657, "uhuru</w>": 35690, "barri": 8660, "nate": 26643, "recommends</w>": 22940, "juno</w>": 28845, "sack": 28964, "funnel</w>": 27862, "\u00f0\u0141\u0131\u00bb\u00e2\u0122\u012f\u00e2\u013b\u0122\u00ef\u00b8\u0131</w>": 23595, "ape": 6098, "exo": 15600, "dest": 6540, "guacam": 37477, "sweaters</w>": 31303, "fifaworldcup</w>": 38819, "ceos</w>": 28332, "meredith</w>": 25103, "commun": 1515, "javascript</w>": 16423, "mier</w>": 36490, "adjac": 32517, "gib": 9816, "figs</w>": 38882, "\u00c4\u012f": 45414, "drone</w>": 9397, "\u00f0\u0141\u00a4\u00a3\u00f0\u0141\u00a4\u00a3\u00f0\u0141\u00a4\u00a3</w>": 32262, "enor": 13955, "txwx</w>": 22995, "ulation</w>": 32896, "sty</w>": 2920, "worried</w>": 11911, "turb": 18973, "shuttle</w>": 15842, "enas</w>": 34536, "\u00e0\u00a5\u0122": 45791, "nye": 40723, "ner": 2064, "squ": 1653, "shaq": 46402, "yin</w>": 23543, "radius</w>": 37570, "mal": 1662, "significantly</w>": 16187, "\";</w>": 37549, "cheeseburger</w>": 41200, "vaccine</w>": 17493, "lowry</w>": 27444, "region</w>": 4341, "adobe</w>": 16484, "lines</w>": 3418, "avalanche</w>": 25815, "altitude</w>": 23241, "birthplace</w>": 31429, "draft": 30624, "swa": 4707, "illard</w>": 21920, "login</w>": 31121, "wynn</w>": 36117, "perspectives</w>": 18777, "sner</w>": 31424, "crashed</w>": 16638, "protestant</w>": 46945, "reserved</w>": 19796, "ragnarok</w>": 41856, "supersonic</w>": 42019, "pious</w>": 42441, "makeu": 41707, "craftsmanship</w>": 36682, "pivotal</w>": 31432, "brit</w>": 20066, "greeks</w>": 35866, "foot</w>": 4738, "reu</w>": 40371, "idlib</w>": 36199, "qanon</w>": 19182, "tawards</w>": 14351, "':</w>": 7182, "unusually</w>": 36465, "practise</w>": 38938, "gba</w>": 18528, "wards</w>": 2593, "indiegames</w>": 35864, "caution</w>": 15656, "jewel</w>": 17591, "gg": 1129, "vision</w>": 2515, "toftheday</w>": 20566, "activated</w>": 22249, "comrade</w>": 30844, "minis": 33409, "surviv": 12922, "liberalism</w>": 40018, "erase</w>": 33893, "dan</w>": 2284, "eed</w>": 17513, "acquires</w>": 27376, "distressed</w>": 37515, "pcc</w>": 36059, "sick": 11143, "\u00f0\u0141\u0133\u0127": 31833, "ran": 1433, "\u00f0\u0141\u0136\u00a5\u00f0\u0141\u0136\u00a5\u00f0\u0141\u0136\u00a5\u00f0\u0141\u0136\u00a5\u00f0\u0141\u0136\u00a5</w>": 48401, "univer": 15574, "ed": 843, "sca</w>": 11001, "delusional</w>": 48059, "saleh</w>": 38353, "figaro</w>": 48044, "ude</w>": 35194, "4": 19, "separate</w>": 13886, "ffic": 4762, "alleges</w>": 45051, "succul": 25671, "optimis": 39459, "minds</w>": 9244, "richi": 38934, "\u0120": 220, "plugged</w>": 23261, "about</w>": 781, "azalea</w>": 34087, "\u00f0\u0141\u00a7\u0132</w>": 33549, "admi": 11666, "peyton": 49254, "assorted</w>": 36701, "originally</w>": 12849, "bess</w>": 43791, "brilliant</w>": 4106, "croatian</w>": 34795, "clues</w>": 23764, "bernie": 40093, "rij": 41097, "utsa</w>": 37528, "awhile</w>": 19171, "\u00f0\u0141\u013c\u0122\u00f0\u0141\u013c\u0122": 49033, "groundbreaking</w>": 21006, "osp": 24387, "ccot</w>": 24950, "refill</w>": 37859, "gauntlet</w>": 37163, "opal</w>": 28982, "governor</w>": 6630, "bu": 609, "liby": 36390, "\u00f0\u0141\u0134\u00a3": 36862, "asot</w>": 47968, "mant": 25122, "benitez</w>": 46711, "fella</w>": 17586, "nu": 1156, "funrun</w>": 34185, "mohammad</w>": 19926, "jill": 24136, "react": 36566, "leak</w>": 15489, "koh</w>": 31216, "chatt": 21618, "treatments</w>": 15839, "aston": 24760, "vests</w>": 41906, "hart</w>": 7752, "assassination</w>": 24907, "ingl": 45662, "moo": 4953, "symboli": 22019, "lington</w>": 9002, "rell</w>": 7127, "fdny</w>": 41084, "kyu</w>": 25490, "went": 18633, "cass</w>": 22556, "))</w>": 5167, "fleming</w>": 25769, "paralleled</w>": 42520, "pak": 13186, "noisse": 45686, "sso</w>": 7914, "pantry</w>": 25608, "fton</w>": 26605, "appropri": 8446, "euthan": 43280, "inoa</w>": 25649, "compartment</w>": 40383, "\u00e0\u00b8\u00a1</w>": 29570, "kov": 17733, "ontology</w>": 37364, "civil</w>": 6450, "trot</w>": 30453, "energetic</w>": 24197, "missuni": 26347, "presser</w>": 27826, "world</w>": 1002, "logy</w>": 1659, "pom": 7548, "dvds</w>": 36655, "idol</w>": 8884, "hwy</w>": 13812, "volcanic</w>": 24072, "gala</w>": 7211, "minute</w>": 4497, "zs</w>": 35248, "exempt</w>": 44278, "sonar</w>": 48235, "lunches</w>": 29705, "phdchat</w>": 39564, "buff</w>": 21416, "fake</w>": 5777, "blogs</w>": 16682, "fic": 1788, "tops</w>": 8154, "horri": 8656, "ditch": 43715, "erry</w>": 24124, "respir": 20771, "jae</w>": 15765, "count": 6073, "snes</w>": 26667, "bha</w>": 33068, "\u00f0\u0141\u0134\u00b8": 37696, "porte</w>": 28654, "ames</w>": 5469, "cowgirl</w>": 47090, "individu": 9574, "hundred</w>": 11898, "\u00ec": 168, "blogging</w>": 18090, "cautious</w>": 36579, "aioli</w>": 43949, "dominos</w>": 39770, "relays</w>": 28404, "lola</w>": 19065, "ondon</w>": 11851, "p</w>": 335, "volt</w>": 26430, "men</w>": 1656, "anno": 9901, "rhapsody</w>": 35774, "bech": 44055, "scenter</w>": 23059, "cumbria</w>": 17953, "nas</w>": 15250, "laura": 17091, "cm</w>": 3741, "considered</w>": 9487, "pyrenees</w>": 39744, "gaya</w>": 39477, "sila</w>": 41754, "beth</w>": 4892, "samheughan</w>": 36255, "begs</w>": 43531, "campeones</w>": 30105, "seeding</w>": 40050, "ffler</w>": 39819, "exhibits</w>": 30093, "stupi": 18975, "mallorca</w>": 28082, "otwol": 46868, "protesting</w>": 18788, "helena</w>": 23109, "maidan</w>": 37346, "planting</w>": 13922, "insul": 9615, "liberty": 23397, "akhi": 41660, "hired</w>": 17602, "erosion</w>": 30174, "reminding</w>": 19976, "downer</w>": 42522, "moha": 46892, "shelby</w>": 16885, "matsu": 30242, "bram": 14815, "riya</w>": 36908, "hour": 14930, "\u00f0\u0141\u0134\u0132": 27375, "\u00f0\u0141\u012e\u0122</w>": 34348, "iser": 23080, "wears</w>": 11869, "hotter</w>": 23591, "zappa</w>": 46592, "pendants</w>": 44117, "recordings</w>": 19715, "unto</w>": 19801, "glove</w>": 16078, "uncles</w>": 45335, "edmonds</w>": 46520, "thrive</w>": 17669, "notredame</w>": 34077, "reacted</w>": 42515, "elements</w>": 10925, "corro": 24936, "ioc</w>": 43018, "islander</w>": 45651, "aye": 21661, "incre": 1870, "horse</w>": 4558, "ancer</w>": 17415, "insulated</w>": 42051, "champion": 2643, "brit": 2318, "intentionally</w>": 31215, "makeup": 26402, "occi": 42994, "pyro": 39762, "jefferson": 44711, "coaching</w>": 7766, "cavalry</w>": 32467, "K": 42, "reminds</w>": 8303, "drainage</w>": 25953, "kamal</w>": 28619, "berke": 14639, "sycam": 34911, "starwar": 17287, "roberto": 42645, "ragon</w>": 34768, "ward</w>": 1460, "ruth": 15798, "programmer</w>": 37001, "anny": 34313, "desks</w>": 41014, "socialist</w>": 18450, "fan</w>": 2261, "affordability</w>": 44828, "hookah</w>": 34214, "cultur": 20780, "done": 5136, "catalonia</w>": 27039, "bolo</w>": 40236, "advis": 4634, "christmass": 44873, "citi": 4280, "aea</w>": 37048, "palmer</w>": 13633, "grocer": 11633, "ira</w>": 5371, "clean": 3572, "mckinnon</w>": 48736, "safe</w>": 2996, "cent</w>": 3662, "managers</w>": 12853, "scamp</w>": 28451, "yon": 10147, "critical</w>": 6808, "exac": 5460, "stie": 38164, "indefinitely</w>": 43750, "sebasti": 10324, "\u0137\u00ef\u00b8\u0131</w>": 44853, "ironman</w>": 20330, "manly</w>": 25194, "dolom": 37137, "rescue": 28567, "luca</w>": 21053, "mcar": 43776, "eners</w>": 48208, "expect": 9802, "yoga</w>": 5523, "horrormovies</w>": 46682, "rice</w>": 4741, "vfx</w>": 30149, "pli</w>": 45797, "injury</w>": 6223, "\u00f0\u0141\u012e\u00b9": 14990, "sovere": 17736, "nostalgic</w>": 24468, "reo": 15963, "absent</w>": 30363, "hier</w>": 29913, "gon": 1854, "lineman</w>": 31501, "infan": 17219, "wight</w>": 15545, "carre": 31114, "dubrov": 46709, "islamic</w>": 9552, "solving</w>": 15581, "atus</w>": 14795, "investigates</w>": 29621, "swim": 4928, "varan": 36585, "hostess</w>": 39692, "tape</w>": 5749, "algorithms</w>": 26039, "lgm</w>": 39389, "graded</w>": 13823, "finn</w>": 16925, "leon</w>": 9763, "turing</w>": 5812, "jagu": 10096, "brendan</w>": 15414, "dangers</w>": 23726, "empowers</w>": 46206, "hydra</w>": 40420, "ross</w>": 2158, "webber</w>": 34248, "bestfan": 23880, "account</w>": 4684, "joe": 9309, "cabe</w>": 32731, "webcomic</w>": 34286, "preds</w>": 40125, "cord": 40893, "articles</w>": 11939, "veteransday</w>": 26409, "mp": 1037, "theday</w>": 4408, "thir": 6030, "cultural": 34908, "krishnan</w>": 46535, "sim</w>": 10740, "^)</w>": 30720, "apache</w>": 23921, "hui</w>": 29978, "stamatic</w>": 30904, "momentum</w>": 15722, "salis": 20667, "spacious</w>": 24769, "ile": 18398, "\u00f0\u0141\u0129\u00b8\u00f0\u0141\u0129": 33325, "ffxiv</w>": 26569, "kb</w>": 19960, "\u00f0\u0141\u013a\u0124\u00f0\u0141\u013a\u0124\u00f0\u0141\u013a\u0124\u00f0\u0141\u013a\u0124\u00f0\u0141\u013a\u0124\u00f0\u0141\u013a\u0124\u00f0\u0141\u013a\u0124</w>": 48973, "campbell</w>": 8806, "less": 3242, "burrell</w>": 49045, "baw": 19808, "unsafe</w>": 32071, "nicknamed</w>": 45190, "gonzaga</w>": 36241, "pitt</w>": 15599, "wewant": 39280, "collagen</w>": 36120, "biodiversity</w>": 17428, "pullover</w>": 44020, "saudi": 24511, "mpd</w>": 33814, "glover</w>": 21594, "moga": 41732, "bahan</w>": 28704, "excuse</w>": 9266, "colorized</w>": 46730, "gorilla</w>": 21994, "avon": 22790, "zun": 42440, "ucd": 44746, "appointed</w>": 11087, "wizard": 30490, "antibody</w>": 49018, "evacuated</w>": 26806, "ingco</w>": 40444, "dex": 10030, "wives</w>": 14378, "triton</w>": 45437, "seniors</w>": 8138, "brunswick</w>": 24012, "might</w>": 2727, "sump": 34252, "organizational</w>": 29510, "microbiology</w>": 35348, "tsman</w>": 20046, "snapchat</w>": 7799, "levin</w>": 36949, "makin": 43096, "followthe": 30747, "tupac</w>": 31506, "edges</w>": 20938, "ninth</w>": 22770, "muni": 27327, "shistory</w>": 34979, "sylvia</w>": 25670, "ironic</w>": 24518, "uncle</w>": 8002, "frosted</w>": 35988, "creatives</w>": 29352, "unite": 15078, "unconditional</w>": 31112, "taneous</w>": 22275, "whoo": 20003, "jody</w>": 32959, "haan</w>": 36284, "hug": 40790, "ete</w>": 40245, "volunteers</w>": 5939, "rhode": 39302, "shru": 14911, "urie</w>": 46429, "glory</w>": 7285, "\u00f0\u0141\u013a\u00ab": 25141, "mms</w>": 37803, "narratives</w>": 35117, "heir": 27083, "umes</w>": 21403, "pok\u00c3\u00a9": 20656, "vamps</w>": 44810, "kyrgy": 40013, "joyful</w>": 24139, "pedestrians</w>": 33895, "\u00d1\u0124": 17875, "activity</w>": 6206, "avel": 46817, "spied</w>": 43998, "vival": 35920, "rx": 41188, "edg": 35955, "kyo": 13150, "amas</w>": 15667, "moham": 7923, "rie</w>": 5322, "township</w>": 14622, "accountable</w>": 24216, "anon</w>": 13667, "waltham": 42742, "wrecks</w>": 45545, "summon</w>": 39782, "suf</w>": 22579, "cortez</w>": 30461, "languages</w>": 13527, "prose</w>": 28675, "recent</w>": 3969, "pony": 24438, "fitters</w>": 32364, "machin": 17972, "mpp</w>": 39570, "normally</w>": 15870, "lette</w>": 10301, "futures</w>": 13488, "astonishing</w>": 27110, "objects</w>": 13770, "snuggles</w>": 48165, "bfi</w>": 34244, "thepersonalnetwork</w>": 30016, "economic": 36649, "L</w>": 299, "elders</w>": 28617, "rsvp</w>": 9774, "ishi": 26224, "hickman</w>": 49148, "eaton</w>": 28462, "uv</w>": 15977, "rac": 1773, "chairman</w>": 6901, "osh": 30717, "migu": 12279, "turkeys</w>": 37991, "muffins</w>": 25922, "compromised</w>": 38576, "itup</w>": 35838, "pnp</w>": 25972, "sians</w>": 26583, "aldridge</w>": 38084, "\u00e0\u00a4\u00ac</w>": 43599, "tsu": 13950, "nasheed</w>": 49176, "gran</w>": 14493, "\u013d": 249, "wx</w>": 3561, "cooled</w>": 37170, "galatasaray</w>": 47787, "sofficial</w>": 20563, "cristina</w>": 33395, "comers</w>": 34436, "subur": 12517, "xox": 11531, "inches</w>": 10809, "axes</w>": 45970, "etsy</w>": 6282, "manziel</w>": 40637, "griev": 36400, "risky</w>": 27630, "colonialism</w>": 43385, "djokovic</w>": 27944, "capital": 11198, "amos</w>": 18133, "haus</w>": 16478, "grin": 11033, "scopic</w>": 23869, "jenn": 33921, "cauley</w>": 41682, "aib</w>": 34780, "sbk</w>": 39211, "ctions</w>": 7021, "quotes</w>": 5808, "shy</w>": 9682, "dk</w>": 16196, "piece": 39632, "siwon</w>": 29055, "caf": 3471, "isf</w>": 44036, "thro": 2101, "loveislove</w>": 43603, "jiha": 23194, "ecofriendly</w>": 43412, "sentence</w>": 12737, "paleo": 36741, "phins</w>": 40210, "livesmatter</w>": 20348, "classical</w>": 11355, "winn</w>": 38104, "mold</w>": 21846, "epiph": 40561, "lhp</w>": 45092, ";;</w>": 24492, "vintag": 10936, "rim": 28147, "cds</w>": 20784, "ular</w>": 4927, "puns</w>": 35231, "ngos</w>": 34627, "oci": 9891, "freak</w>": 13701, "comm": 965, "periph": 35308, "tans</w>": 27332, "unt": 19654, "sla": 2725, "incorporating</w>": 40303, "blanc</w>": 13301, "must</w>": 2048, "verb</w>": 34952, "week</w>": 994, "utt": 17096, "tremb": 44043, "banjo</w>": 27014, "crowe</w>": 33560, "labelled</w>": 45188, "samp": 31225, "tulane</w>": 44893, "dynamics</w>": 14329, "vesmatter</w>": 47636, "jermaine</w>": 40722, "unusual</w>": 12613, "forums</w>": 31518, "spiritu": 7237, "hotties</w>": 46027, "explorers</w>": 28491, "outsider</w>": 41196, "newfound": 25250, "awgs</w>": 35275, "asylum</w>": 15638, "hurting</w>": 24017, "(;</w>": 23983, "gatorade</w>": 36354, "lombard</w>": 46461, "nole</w>": 34654, "quest": 31653, "abay</w>": 43542, "avan</w>": 33351, "gamification</w>": 48908, "cardo</w>": 40625, "scon": 17163, "goto": 39715, "witnesses</w>": 22778, "noida</w>": 33404, "juventus</w>": 16208, "ad": 594, "kimono</w>": 40024, "repeal</w>": 23938, "bell</w>": 3718, "\u00c3\u00b3</w>": 27733, "archa": 45619, "insist</w>": 35504, "invention</w>": 23607, "very</w>": 1070, "seduc": 19933, "generals</w>": 30296, "seasons</w>": 8635, "blazers</w>": 16984, "biodegradable</w>": 47740, "athletics</w>": 7019, "horse": 8562, "fanci": 35908, "cycled</w>": 31055, "strengthening</w>": 23475, "inked</w>": 29356, "soldier</w>": 9355, "horribly</w>": 45484, "powder</w>": 9674, "earts</w>": 38824, "lers</w>": 6247, "agt</w>": 39681, "listens</w>": 25912, "kam</w>": 26011, "\u00f0\u0141\u0135\u00b1</w>": 20824, "vincen": 33402, "elliott": 44456, "cooper": 7264, "princes": 45329, "mgm</w>": 27572, "sero": 48883, "atkins</w>": 27734, "chong</w>": 26220, "park</w>": 1452, "butt</w>": 31523, "\u00f0\u0141\u0133\u00b9</w>": 46766, "awa": 4820, "denham</w>": 39180, "commemor": 9495, "informat": 29625, "withthe": 36872, "tk": 22344, "tte</w>": 3070, "sang": 13235, "collusion</w>": 33864, "bode": 28452, "hawkeye</w>": 38666, "ters</w>": 1737, "\u00e4\u00ba": 21078, "wickets</w>": 22110, "\u00c2\u00bf</w>": 17133, "parent": 47848, "asy": 8524, "scenario</w>": 20456, "demonstrate</w>": 22231, "georg</w>": 43126, "sock": 29801, "insomnia</w>": 30598, "stadiums</w>": 38852, "cast</w>": 1970, "abpoli</w>": 44779, "assoc</w>": 18891, "wasting</w>": 25577, "steam": 10962, "polar</w>": 12214, "fashion</w>": 2444, "will</w>": 751, "phe": 4787, "gae</w>": 22003, "flye": 30873, "disclaimer</w>": 46465, "dodd</w>": 36748, "scwx</w>": 41966, "flavor": 31835, "prays</w>": 46602, "sedly</w>": 31771, "patrice</w>": 40731, "bishops</w>": 31579, "bumps</w>": 21115, "\u00b2": 110, "prestige</w>": 29328, "tristan</w>": 25497, "valence</w>": 30225, "coronary</w>": 45955, "sculptor</w>": 29409, "thornton</w>": 23592, "match</w>": 2439, "areyou": 37607, "clarkson</w>": 25706, "\u00d0\u00be\u00d0\u00b4": 38416, "\u00e6\u0139\u00a5": 39121, "roddy</w>": 42332, "\u00e2\u0143\u0132\u00ef\u00b8\u0131\u00e2\u0143\u0132\u00ef\u00b8\u0131": 18640, "dublin</w>": 6145, "mexican</w>": 8186, "stag</w>": 20277, "stylish</w>": 10378, "nees</w>": 47248, "cia</w>": 4019, "hamradio</w>": 36712, "eidmubarak</w>": 46275, "alb": 45248, "coconut</w>": 9581, "pura</w>": 25596, "woodson</w>": 48967, "mitch": 6969, "wheeler</w>": 18405, "novascotia</w>": 34744, "nlwx</w>": 49260, "yamaha</w>": 18854, "klaus</w>": 31788, "crat</w>": 46696, "decked</w>": 39096, "wny</w>": 24833, "hurd</w>": 44915, "leftover</w>": 26414, "ebola</w>": 15864, "reliance</w>": 27727, "tokyo</w>": 6667, "linke": 15088, "tempest</w>": 36053, "accident</w>": 6608, "maro": 27029, "radicals</w>": 45903, "orange</w>": 4287, "reflex</w>": 36050, "audi": 5091, "badan</w>": 39149, "dl</w>": 9373, "affection</w>": 28381, "qualify</w>": 17019, "mt": 4252, "mrt</w>": 30256, "chinook</w>": 41577, "\u00e6\u013b": 48132, "thanks": 5672, "chell</w>": 46854, "tick</w>": 15617, "terran": 43726, "copies</w>": 9851, "vel</w>": 1287, "amazing</w>": 1370, "satisfying</w>": 23755, "neville</w>": 19269, "compliant</w>": 29893, "cripp": 33588, "cook</w>": 5977, "cester</w>": 12718, "president</w>": 1940, "centre</w>": 2916, "iti": 760, "therapeu": 19332, "snow</w>": 2583, "productions</w>": 14166, "daddy</w>": 6546, "ev</w>": 10133, "ssal": 31330, "fayre</w>": 34982, "coin</w>": 4170, "vc": 28670, "philos": 8395, "welch</w>": 25820, "\u00e0\u00ae": 6022, "integration</w>": 12583, "icu": 45118, "geno</w>": 46776, "\u00f0\u0141\u0134\u00aa</w>": 6440, "stays</w>": 13311, "dog": 4326, "epp": 39054, "mca": 40570, "yles</w>": 42860, "\u00e0\u00b8\u0123</w>": 30767, "aise</w>": 30505, "swe</w>": 38070, "serv": 1297, "morning": 10769, "clave</w>": 24111, "life</w>": 970, "ucla": 37667, "entic</w>": 10340, "abstractart</w>": 31170, "ezekiel</w>": 41428, "hyuk</w>": 20452, "\u00f0\u0141\u013a\u012f\u00e2\u013f\u00a4\u00ef\u00b8\u0131</w>": 21945, "songwriter</w>": 13034, "dif": 18656, "benin</w>": 40296, "oka": 42258, "sweepstakes</w>": 25992, "std</w>": 30477, "pneu": 28714, "vladimir</w>": 21702, "conquest</w>": 35367, "chords</w>": 36152, "snoring</w>": 44560, "tirelessly</w>": 41548, "whirl": 30962, "omni</w>": 39489, "pedal": 32943, "eland</w>": 6275, "itian</w>": 23365, "chillen</w>": 45160, "season": 19288, "nak": 9248, "gardens</w>": 6152, "consideration</w>": 24310, "intrigu": 18856, "stevenson</w>": 25091, "landed</w>": 9873, "delici": 19993, "reality": 46802, "viii</w>": 20414, "breaches</w>": 45173, "instrument": 42196, "abv</w>": 34172, "assessments</w>": 32753, "=</w>": 284, "brains</w>": 17129, "tens</w>": 14062, "queues</w>": 40649, "tt</w>": 1402, "\u00f0\u0141\u013a\u00a9\u00f0\u0141\u013a\u00a9</w>": 38031, "mang</w>": 31096, "segun": 43087, "neill</w>": 19324, "allevi": 31682, "motherhood</w>": 32274, "aerosmith</w>": 43253, "fh": 21649, "lcs</w>": 32279, "plings</w>": 31184, "genetic": 47746, "wildly</w>": 35981, "crown</w>": 6902, "sequencing</w>": 33484, "jharkhand</w>": 39001, "madi</w>": 27282, "ikh": 44655, "ignatius</w>": 48318, "encouraging</w>": 15875, "rington</w>": 12455, "replaced</w>": 13200, "delayed</w>": 14567, "onna": 25438, "scheduled</w>": 10986, "seriously</w>": 4885, "cleary</w>": 44342, "discu": 1984, "solitary</w>": 33094, "rhinos</w>": 30671, "scoti": 46446, "sdn</w>": 41925, "darling</w>": 13048, "usl</w>": 42113, "guide": 21845, "chino</w>": 27440, "berlin": 23532, "chemo</w>": 36348, "outof": 43958, "aag": 42174, "crab": 27382, "loo": 731, "gabri": 8311, "watkins</w>": 22539, "psychotic</w>": 48774, "ha": 560, "\u00c3\u00af": 35689, "om</w>": 3932, "seychel": 36809, "economically</w>": 39406, "yr": 18395, "pleasant</w>": 12271, "benchmark</w>": 31775, "long</w>": 1538, "\u00f0\u0141\u0129\u00ba\u00f0\u0141\u0129\u00b8": 8907, "large": 40234, "milly</w>": 45794, "doge</w>": 42187, "copen": 15637, "irez</w>": 21581, "sacrificed</w>": 31116, "_/": 37647, "perceived</w>": 38436, "itfc</w>": 36519, "comparison</w>": 14186, "\u00f0\u0141\u0133\u012e\u00f0\u0141\u0131\u00bb</w>": 18606, "parsons</w>": 22505, "drummer</w>": 13618, "lothian</w>": 31360, "maintains</w>": 38335, "pmo": 18782, "pe</w>": 956, "rug": 4217, "nadu</w>": 20936, "monoxide</w>": 49314, "dimensional</w>": 25252, "martina</w>": 34393, "smoothie</w>": 16668, "oa</w>": 11994, "morton</w>": 20698, "jaws</w>": 25491, "jami": 15092, "mould</w>": 36743, "topo": 23008, "sci": 2267, "sao</w>": 28026, "nears</w>": 37710, "optimi": 9737, "deal</w>": 2696, "azerbai": 20649, "sickest</w>": 47972, "\u00e2\u013a\u0137": 11454, "marx</w>": 26001, "disabled</w>": 13613, "reduced</w>": 10821, "magaz": 2974, "sleepy": 32572, "kph</w>": 41138, "kak</w>": 40128, "upper</w>": 7067, "render</w>": 13024, "slayer</w>": 21605, "dled</w>": 23494, "tho": 1325, "pesticides</w>": 37868, "unlimited</w>": 11015, "deon": 31466, "com</w>": 2464, "ricciardo</w>": 49282, "zier</w>": 15399, "brenner</w>": 42941, "inju": 5006, "home": 2143, "north": 3468, "affili": 12120, "wen</w>": 11278, "arium</w>": 11809, "'!</w>": 13781, "league</w>": 2313, "awaits</w>": 15635, "kei</w>": 24835, "blacklist</w>": 30295, "bened": 13216, "location</w>": 4372, "in</w>": 530, "tte": 23105, "alligator</w>": 28574, "hauser</w>": 46586, "standing</w>": 2862, "motto</w>": 23338, "carrie": 30334, "wille": 48739, "existent</w>": 43541, "caf</w>": 20867, "vich</w>": 24143, "dilu": 45242, "cancer</w>": 3148, "novak</w>": 26465, "gama</w>": 35873, "placing</w>": 18531, "sn</w>": 5844, "\u00f0\u0141\u013a\u0136</w>": 11432, "naments</w>": 16540, "forsy": 29629, "patton</w>": 29026, "increasingly</w>": 16106, "sa</w>": 1344, "ambu": 34423, "resolved</w>": 28807, "bookof": 45629, "crimes</w>": 11827, "archbishop</w>": 23994, "gan": 1822, "translating</w>": 42156, "phenomenon</w>": 24464, "jagger</w>": 30835, "ead</w>": 45523, "obs</w>": 39162, "radio": 7176, "palace</w>": 6381, "civic": 32240, "registrations</w>": 38423, "buried</w>": 14233, "cyclones</w>": 34669, "alling</w>": 2992, "coup</w>": 16479, "buddhism</w>": 23744, "instagram</w>": 2659, "courtney": 33601, "((": 22944, "satchel</w>": 45908, "replay</w>": 16875, "dob": 29640, "nasty": 32930, "barney</w>": 24563, "nr": 6574, "pakistanis</w>": 45707, "\u00e2\u013c\u00bd</w>": 13173, "jun</w>": 7719, "nerd</w>": 12273, "habitats</w>": 35344, "manuscript</w>": 24365, "clash</w>": 9359, "ecological</w>": 25127, "cko</w>": 28818, "austrian</w>": 20638, "recovering</w>": 19005, "scarf</w>": 13365, "doglo": 40733, "\u00e2\u012b": 22684, "\u00f0\u0141\u0134\u00a6</w>": 14060, "evolu": 7725, "appropriation</w>": 49110, "sgh</w>": 47590, "tado</w>": 40846, "elisa": 25610, "ecuador</w>": 19813, "introduced</w>": 10446, "pros</w>": 14147, "midst</w>": 24752, "bhuban": 38729, "stanbul</w>": 11231, "gospel</w>": 11313, "imperial</w>": 12361, "bare": 16023, "\u00d4": 144, "draf": 37426, "timed</w>": 32727, "bicycles</w>": 31326, "cpa</w>": 30095, "recipe": 28923, "tucker</w>": 15726, "trak</w>": 24065, "\u00e2\u013c\u00ab\u00ef\u00b8\u0131</w>": 24649, "became</w>": 5464, "thefilm</w>": 31665, "dwelling</w>": 37098, "sv": 6508, "een": 47490, "cutting</w>": 7266, "tame": 38557, "polish": 46941, "cinde": 20660, "opathic</w>": 37521, "pry": 31965, "bodyguard</w>": 35565, "gayo</w>": 36768, "cse</w>": 41659, "hydraulic</w>": 26189, "browsing</w>": 29318, "aar</w>": 13234, "reopen</w>": 26883, "weeks</w>": 2898, "comcast</w>": 30043, "\u00f0\u0141\u0129\u00aa\u00f0\u0141\u0129\u00ba</w>": 34655, "anium</w>": 14794, "criss</w>": 29708, "etty</w>": 40759, "lowes</w>": 38515, "hunger</w>": 10184, "gd": 13264, "slions</w>": 43363, "sug": 3189, "jt</w>": 18119, "\u010f": 203, "rips</w>": 30182, "\u00e2\u0122\u012d": 17086, "crusted</w>": 37314, "spells</w>": 25335, "sanat": 29091, "reading": 17556, "china</w>": 2817, "pte</w>": 47804, "communist</w>": 18602, "loveher</w>": 38306, "therine": 26807, "indonesian</w>": 19593, "\u00d8\u00b1</w>": 24933, "fever</w>": 9989, "fundra": 6201, "major": 8008, "partridge</w>": 34872, "continental</w>": 14089, "spoon": 27001, "it": 529, "\u00e0\u00a4\u00b2</w>": 30881, "tj": 18890, "jane": 12389, "aaaah</w>": 49151, "ers": 4840, "kicchasudeep</w>": 45560, "knowledge</w>": 5510, "wson</w>": 33954, "annabelle</w>": 47661, "funding</w>": 5588, "livelihood</w>": 46497, "auberg": 49382, "marck</w>": 47733, "sensation</w>": 19383, "dik": 38854, "\u00ac": 105, "jed</w>": 38748, "dao</w>": 36099, "attitudes</w>": 27611, "electoral</w>": 19544, "sweetened</w>": 45577, "peshaw": 28524, "cled</w>": 12827, "aty</w>": 33107, "bumblebee</w>": 36911, "ail": 1457, "battleof": 47560, "sagin": 47097, "erno</w>": 40812, "inverte": 46397, "abbas": 37494, "solo": 17626, "machining</w>": 45562, "legends</w>": 6396, "dhary</w>": 28706, "adolescents</w>": 45656, "smere</w>": 39629, "gunman</w>": 32743, "trick</w>": 8172, "healthand": 43704, "xide</w>": 17398, "unbeat": 37056, "psyched</w>": 35199, "ilove</w>": 32914, "goss": 39734, "xiii</w>": 28199, "kris</w>": 12261, "mimo": 45551, "aisha</w>": 40211, "tiny": 21716, "reset</w>": 26250, "eces</w>": 5905, "vigor": 26781, "niag": 18071, "mentors</w>": 20945, "hayat</w>": 49360, "1": 16, "quantum</w>": 15320, "eler</w>": 24646, "retired</w>": 11477, "tsc</w>": 37437, "asset</w>": 13039, "oom": 22786, "mise</w>": 17267, "female": 22062, "cinema</w>": 6443, "riot": 32636, "rimin": 11527, "nbc": 9352, "repell": 46235, "winds</w>": 7012, "garci": 44658, "obstru": 44876, "string</w>": 9696, "aau</w>": 35426, "interaction</w>": 17650, "clyde</w>": 18469, "dag</w>": 25650, "elected</w>": 8828, "kun</w>": 21842, "\u00f0\u0141\u0133\u00b6</w>": 33189, "\u00d9\u0123": 24112, "mountain": 14547, "buck</w>": 11433, "celebration</w>": 4615, "complications</w>": 29936, "herd</w>": 18589, "freshwater</w>": 24803, "santo</w>": 18400, "tive</w>": 1420, "unknown</w>": 8685, "motivates</w>": 44684, "unclear</w>": 32955, "acele": 40868, "buh</w>": 31406, "dh</w>": 9960, "hep</w>": 48791, "tarian</w>": 11762, "airports</w>": 21543, "sort</w>": 8450, "ghost</w>": 7108, "southern": 17704, "skull</w>": 12092, "dero": 37203, "\u00f0\u0141\u0130\u00ac": 36020, "catalan</w>": 30532, "barbe": 18372, "chicas</w>": 40664, "gone</w>": 3601, "washing</w>": 13029, "))))</w>": 34181, "kazakh": 25451, "walla": 26007, "newzealand</w>": 21117, "actment</w>": 44807, "saltlife</w>": 47809, "aggreg": 41968, "temper</w>": 35521, "panhandle</w>": 40919, "isme</w>": 43570, "botd</w>": 34451, "refreshing</w>": 14159, "booster</w>": 20877, "digger</w>": 35919, "mucha</w>": 42191, "mta</w>": 28691, "scram": 17289, "brady": 42494, "developed</w>": 8763, "\u00e2\u013a\u0127\u00e2\u013a\u0127\u00e2\u013a\u0127\u00e2\u013a\u0127</w>": 44034, "ciones</w>": 37155, "miguel": 33672, "kes</w>": 1115, "slit</w>": 47011, "shot": 9805, "curled</w>": 43734, "mongolian</w>": 46335, "agm</w>": 19162, "guwa": 43063, "\u00f0\u0141\u0134\u0130</w>": 15874, "adrian</w>": 13163, "rewar": 15857, "adverse</w>": 30348, "enza</w>": 25239, "malt</w>": 21688, "unhealthy</w>": 30994, "loy</w>": 23929, "surge</w>": 17457, "hungergames</w>": 47507, "\u00f0\u0141\u0128": 9536, "wisely</w>": 26173, "flexibility</w>": 22547, "\u00f0\u0141\u0134\u013d": 8221, "freezing</w>": 12499, "blow</w>": 10211, "edna</w>": 39002, "musically</w>": 48893, "taka": 24070, "clover": 39574, "len</w>": 2159, "thwaite</w>": 48469, "ier": 33173, "jungle": 42421, "wwenxt</w>": 39898, "cycli": 12201, "keral": 35122, "worst</w>": 5719, "waldo</w>": 32440, "ub": 18430, "palm": 19651, "ird</w>": 2770, "ender</w>": 12383, "confirming</w>": 38433, "miley</w>": 14321, "bapti": 15477, "vincent": 29069, "///</w>": 22734, "misfits</w>": 42708, "tability</w>": 15770, "participating</w>": 11535, "rumours</w>": 20716, "congreg": 40727, "assisting</w>": 24243, "todays</w>": 13513, "tot": 4618, "imwithher</w>": 32651, "srk</w>": 11216, "restock</w>": 34060, "ih": 12162, "eper</w>": 43071, "fighter</w>": 6438, "shade": 34554, "mashed</w>": 27395, "climatechange</w>": 11055, "forall</w>": 17824, "lieutenant</w>": 22538, "aaron": 13948, "discar": 40532, "glasgo": 6757, "oss</w>": 34640, "mology</w>": 32255, "missoula</w>": 48549, "<-</w>": 47280, "partnership</w>": 6123, "resurrection</w>": 25811, "banker</w>": 27316, "pedia</w>": 11733, "erne": 33930, "nail": 19459, "tempered</w>": 40521, "winslow</w>": 39658, "epi</w>": 34641, "fonda</w>": 44609, "pilsner</w>": 47153, "regg": 12757, "itable</w>": 8915, "java</w>": 12918, "grips</w>": 27819, "noman": 45592, "maer": 47088, "healthyeating</w>": 33761, "diabe": 19167, "exam": 4428, "arena</w>": 5463, "malicious</w>": 42147, "goldberg</w>": 25161, "codes</w>": 14566, "mann": 19396, "eyel": 17075, "accessi": 10787, "chemtrails</w>": 46015, "sensible</w>": 30635, "pec</w>": 17611, "shment</w>": 8802, "education": 22358, "kne": 6358, "solu": 2487, "\u0101</w>": 445, "own</w>": 1758, "servants</w>": 29652, "cgi</w>": 30520, "clearing</w>": 15481, "waving</w>": 26545, "vegetables</w>": 14119, "tribute</w>": 5493, "destro": 8287, "periscope</w>": 21668, "\u00f0\u0141\u0133\u00a8\u00e2\u0122\u012f": 25023, "canals</w>": 38483, "legalize</w>": 42921, "muer": 33840, "sweetest</w>": 15180, "singersongwriter</w>": 44585, "tej</w>": 46724, "filled</w>": 5589, "breakfast</w>": 3290, "tomo": 31223, "its</w>": 902, "soren": 38907, "redo</w>": 42524, "muh</w>": 46475, "huar": 46916, "ary</w>": 856, "leop": 11234, "topaz</w>": 46125, "itz</w>": 7807, "ci": 698, "legalization</w>": 40584, "lobby</w>": 12449, "regre": 8627, "baseball</w>": 3470, "fried": 13743, "does": 2397, "experience</w>": 2415, "extend</w>": 14492, "ney</w>": 1438, "noton": 48258, "barbican</w>": 47668, "sobre</w>": 42768, "fakespeare</w>": 49095, "\u0132": 238, "mums</w>": 17868, "ai": 2014, "ow": 2032, "futu": 33454, "mousse</w>": 31869, "lunch": 10954, "buckeyes</w>": 30741, "ashram</w>": 43445, "conne": 8437, "writing</w>": 2979, "mersal</w>": 36711, "someday</w>": 17127, "eiffel</w>": 29720, "qa</w>": 16360, "bms</w>": 34074, "\u00ec\u00b6": 42476, "bubbles</w>": 17648, "geon</w>": 7295, "omen</w>": 25469, "itu": 1668, "trophies</w>": 20998, "adityanath</w>": 44437, "chas": 10717, "israel": 20837, "runway</w>": 13927, "eth</w>": 5927, "rag": 13958, "\u00f0\u0141\u013c\u0139": 33054, "parasite</w>": 42460, "contro": 2372, "battery</w>": 7870, "\u00f0\u0141\u012f\u00b0": 43732, "touching</w>": 14088, "macro": 20891, "protest</w>": 6279, "eps</w>": 4090, "hath</w>": 34416, "decreasing</w>": 43763, "schen": 22738, "cheerleaders</w>": 22343, "tsun": 19155, "angelina</w>": 28890, "tur</w>": 17182, "plasticsurgery</w>": 48555, "gesture</w>": 21780, "sted": 20426, "wayne</w>": 7003, "argentine</w>": 32582, "rolls</w>": 8614, "\u00e2\u013f\u0126\u00ef\u00b8\u0131\u00e2\u013f\u0126\u00ef\u00b8\u0131": 41626, "froze</w>": 47788, "gros": 26834, "ually</w>": 10767, "peck</w>": 29234, "utpol</w>": 42605, "anthony": 17477, "vesti": 40349, "cna</w>": 48287, "pc": 6782, "nay": 11704, "andover</w>": 44177, "tetris</w>": 45934, "canned</w>": 27290, "hyatt": 44856, "xvi</w>": 44031, "murray": 31978, "mini</w>": 3954, "older</w>": 7700, "mouth</w>": 4932, "abud": 20180, "ronda</w>": 37436, "cuddles</w>": 24001, "elitedangerous</w>": 47138, "snowing</w>": 21443, "learn": 16959, "pelicans</w>": 29363, "\u00b7": 115, "toma": 42360, "anem": 41395, "anirudhofficial</w>": 45917, "lesh</w>": 32282, "todas</w>": 36150, "prepa": 26270, "assess</w>": 23211, "our": 727, "weakness</w>": 21448, "manian</w>": 40077, "psi</w>": 24533, "macon</w>": 35818, "hudder": 22629, "hairstyles</w>": 40627, "who": 2969, "slams</w>": 18907, "cane</w>": 14716, "disgraceful</w>": 44146, ">.<</w>": 38507, "deme": 25143, "\u00f0\u0141\u013a\u0131\u00f0\u0141\u013a\u0131</w>": 38151, "\u00f0\u0141\u0131\u00bf</w>": 21094, "swachhb": 31898, "pups</w>": 20778, "estate</w>": 6159, "\u00f0\u0141\u012f\u0135": 44739, "yyyy": 38749, "taft</w>": 42141, "spine": 48221, "ssu</w>": 35351, "aja</w>": 19633, "distributed</w>": 16419, "checklist</w>": 26989, "brethren</w>": 43134, "disneyland": 39481, "linn</w>": 37431, "startu": 6996, "easiest</w>": 26314, "engaged</w>": 11475, "vn": 47098, "deni": 21995, "resisting</w>": 43679, "enri": 18915, "latel": 49035, "\"'</w>": 31065, "acquis": 14207, "round</w>": 2522, "pr": 766, "tom": 999, "louise</w>": 13076, "seaside</w>": 18867, "-(</w>": 33345, "utz</w>": 45320, "antibio": 18954, "burne</w>": 27246, "stink</w>": 38213, "rs": 6978, "omaha</w>": 16509, "adh</w>": 42301, "defstar</w>": 36427, "discounted</w>": 20993, "combo</w>": 10155, "towers</w>": 12701, "utilized</w>": 47604, "lif": 16456, "spa</w>": 6692, "playa</w>": 23756, "overwhelmed</w>": 23459, "bern</w>": 18382, "rave</w>": 17601, "chimp</w>": 44374, "shown</w>": 8506, "fairytale</w>": 28944, "illy</w>": 9532, "azhar</w>": 47019, "footed</w>": 38040, "burgl": 25554, "multic": 21683, "gger</w>": 3493, "um</w>": 1008, "bor": 1141, "oneill</w>": 44808, "becca</w>": 27088, "ning</w>": 762, "denton</w>": 23567, "grocery</w>": 13826, "buka</w>": 47778, "tou</w>": 29261, "wooden</w>": 9057, "cyborg</w>": 36650, "wot</w>": 24863, "moul": 25725, "lens</w>": 8666, "reti": 4721, "matinee</w>": 38525, "pow": 1317, "orail</w>": 45120, "purple</w>": 5496, "relive</w>": 23939, "boda</w>": 42030, "imperial": 32425, "militi": 46625, "alternative": 37327, "ros\u00c3\u00a9</w>": 28006, "barric": 29189, "telecom</w>": 21057, "vest</w>": 12473, "biop": 15009, "consortium</w>": 29988, "donations</w>": 9928, "pageant</w>": 22139, "apply</w>": 4356, "v</w>": 341, "pastel</w>": 19457, "brokers</w>": 28271, "lv": 10862, "foundry</w>": 31426, "vishnu</w>": 37816, "polk</w>": 33317, "moz": 14761, "chopra</w>": 24258, "juvenile</w>": 19333, "hooray</w>": 24940, "???": 40017, "incur": 42356, "maneu": 33216, "database</w>": 14678, "icted</w>": 36515, "cano": 31668, "duper</w>": 44850, "acclaimed</w>": 21172, "loans</w>": 14206, "thigh": 47124, "admir": 17031, "reasons</w>": 5686, "terry</w>": 8561, "sutherland</w>": 27592, "ittles</w>": 38989, "colleague</w>": 13067, "leek</w>": 34585, "vlad</w>": 41089, "yelp</w>": 31674, "electronica</w>": 43119, "beast</w>": 6957, "humpback</w>": 47662, "halibut</w>": 49030, "armin": 45481, "destroying</w>": 19613, "tym</w>": 45772, "abs</w>": 11109, "modes</w>": 30454, "hobby</w>": 17557, "comedian</w>": 13848, "rigged</w>": 35897, "collapse</w>": 16520, "apocalypse</w>": 17571, "assets</w>": 13170, "crew</w>": 3462, "wikipedia</w>": 15176, "\u00f0\u0141\u013a\u0124\u00f0\u0141\u013a\u0124</w>": 4112, "fist</w>": 17085, "bal</w>": 2282, "astri": 31243, "rizal</w>": 41555, "enrollment</w>": 24875, "ventures</w>": 20829, "dementia</w>": 14047, "squads</w>": 36590, "sein</w>": 24669, "locations</w>": 9580, "pacific</w>": 6654, "occa": 8530, "topus</w>": 21495, "uscg</w>": 43932, "melani": 34031, "da</w>": 1140, "S</w>": 306, "rats</w>": 19043, "cory": 23221, "francesco</w>": 25816, "yorkshire": 27007, "paneli": 19410, "lina</w>": 26110, "flotus</w>": 35181, "dor": 2766, "allocation</w>": 35139, "holm": 34758, "documentary</w>": 7881, "cindy": 34439, "\u00ec\u00b0": 40742, "raheem</w>": 43317, "bengal</w>": 16374, "lit</w>": 4350, "hubert</w>": 40699, "pika</w>": 47372, "engen</w>": 48286, "wattpad</w>": 32351, "co</w>": 1320, "latter</w>": 26198, "constituents</w>": 32075, "fla</w>": 20292, "hoa</w>": 37517, "organiser</w>": 49141, "ncds</w>": 47573, "canterbury</w>": 22271, "\u00e0\u00b8\u0126\u00e0\u00b8": 39628, "nsf</w>": 34180, "iser</w>": 5626, "broke": 42165, "\u00f0\u0141\u0133\u0129\u00f0\u0141\u0131\u00bc</w>": 37504, "oligar": 46185, "\u00f0\u0141\u0130\u012b\u00f0\u0141\u0130\u012a": 40499, "somali</w>": 26231, "plans</w>": 4181, "assured</w>": 25591, "exhi": 3022, "elba</w>": 48598, "silicon</w>": 17888, "profit": 16941, "beli": 1859, "vaughan</w>": 21392, "\u00b5": 113, "upp</w>": 45946, "standing": 39934, "dw": 8455, "wrong</w>": 3669, "dnc</w>": 20237, "narrow</w>": 16652, "taehyung</w>": 24642, "cheeky</w>": 15068, "tweeps</w>": 14928, "ando</w>": 5986, "burrito</w>": 23473, "mund</w>": 14244, "salem</w>": 16884, "tail</w>": 4132, "tored</w>": 38046, "kow": 29764, "ruins</w>": 16094, "waz": 20889, "clockwork</w>": 42297, "el": 544, "colorado": 34580, "resonance</w>": 42310, "intric": 23763, "verte": 35158, "deux</w>": 47089, "buuren</w>": 47752, "\u00f0\u0141\u0130\u013b</w>": 29753, "comedy": 19346, "icelan": 34114, "plar</w>": 26754, "castle": 12496, "polye": 31730, "discover</w>": 4834, "terre": 33888, "#": 2, "bas</w>": 11420, "narco": 38461, "wipes</w>": 33463, "inher": 24611, "ineau</w>": 38122, "incidents</w>": 22120, "graphic": 15653, "inevitable</w>": 25004, "hampton": 36582, "ucf</w>": 24414, "cdnpoli</w>": 11645, "fundamental</w>": 17627, "jonas</w>": 13650, "mist</w>": 11946, "shipped</w>": 15279, "everglades</w>": 46294, "mlkday</w>": 39905, "gabrielle</w>": 33572, "whitewater</w>": 49350, "phers</w>": 29531, "les": 4339, "shedding</w>": 33608, "conclave</w>": 38098, "eliza</w>": 29992, "into</w>": 1095, "expi": 26850, "pagan</w>": 27854, "sque</w>": 8097, "wiki</w>": 24265, "flowering</w>": 19953, "ment": 1585, "hac": 20343, "afirst</w>": 38601, "rarest</w>": 43237, "razz": 43769, "willingness</w>": 40573, "boomer": 33819, "alee</w>": 24515, "shells</w>": 19265, "harley</w>": 13632, "phillip": 48832, "waikiki</w>": 44907, "cait": 14116, "tical": 34191, "apa</w>": 13537, "nichol": 7668, "ussoccer</w>": 42828, "elike": 48913, "thor": 4130, "satisfaction</w>": 19925, "guest": 27349, "killing": 37977, "asta</w>": 43269, "backing</w>": 14935, "mendez</w>": 48275, "ko": 1313, "boogie</w>": 22639, "involvement</w>": 19502, "goldfish</w>": 40293, "paulo": 48002, "mex</w>": 18387, "laq</w>": 45026, "mper</w>": 22803, "\u00f0\u0141\u00a5\u0129</w>": 20069, "split</w>": 9109, "po</w>": 3057, "myrt": 47785, "oko</w>": 26095, "twitter": 7546, "mpc</w>": 38560, "olympian</w>": 25420, "workout</w>": 6773, "victori": 17555, "efron</w>": 48111, "publications</w>": 27334, ")'</w>": 23613, "sory</w>": 16257, "expect</w>": 5716, "brier</w>": 43995, "dubu": 43257, "mg": 10003, "san</w>": 2223, "liquid</w>": 10158, "stroke": 44621, "\u00e2\u013a\u0133": 20983, "chc</w>": 36233, "key": 2891, "\u00e2\u0131\u00b0</w>": 12714, "listening</w>": 3656, "ffy": 26404, "dysfunction</w>": 36865, "leave": 37512, "whispering</w>": 42599, "partner</w>": 4568, "itech</w>": 23040, "erry": 45236, "jewish</w>": 9104, "uprising</w>": 26006, "tial</w>": 2826, "emotional</w>": 7357, "capitol</w>": 11375, "romanian</w>": 30866, "kool</w>": 26444, "\u00f0\u0141\u012e\u0131</w>": 31527, "stacy</w>": 26628, "gt": 16151, "lands": 40223, "preserve</w>": 15570, "skate": 13740, "tramrahim</w>": 35220, "rome": 9406, "influencing</w>": 45126, "ingu": 8714, "bbhuttozardari</w>": 28135, "edy": 17072, "?????</w>": 21370, "mourn</w>": 33592, "dominican</w>": 22934, "mahesh</w>": 22095, "library": 25713, "levi": 25630, "domest": 21936, "rao</w>": 16913, "digit": 14899, "noah": 28806, "bpm</w>": 40338, "oit": 18453, "shakespeare</w>": 12488, "flav": 7191, "hri": 21068, "topps</w>": 20201, "tasmania</w>": 22429, "capo</w>": 45477, "azte": 33270, "\u00f0\u0141\u0134\u0125\u00f0\u0141\u0131\u00bb</w>": 38624, "trumpet</w>": 23681, "ausp": 35039, "sketches</w>": 17622, "ignored</w>": 20428, "radiodisney</w>": 36483, "sto": 928, "queer": 38874, "aine</w>": 17634, "\u00a7": 100, "dispenser</w>": 40116, "argue</w>": 19788, "bonsai</w>": 44129, "taiwan</w>": 12626, "shiraz</w>": 35618, "grimsby</w>": 41513, "\u00f0\u0141\u012e\u00b4</w>": 15968, "[]</w>": 22240, "exceeded</w>": 36221, "newyork</w>": 10454, "vex": 36187, "brah": 20276, "tellers</w>": 42707, "\u0138</w>": 500, "gurmee": 35482, "reuben</w>": 40450, "highlanders</w>": 40445, "nar</w>": 20145, "rise</w>": 3151, "lander</w>": 9666, "beards</w>": 33020, "graham</w>": 7711, "prakash": 43708, "haz</w>": 39921, "cabernet</w>": 33730, "\u00f0\u0141\u00a5": 4156, "liber": 3425, "hide": 17725, "lush</w>": 16263, "inson</w>": 21007, "kzn</w>": 38264, "fang": 14269, "dsley</w>": 40740, "\u00e2\u013a\u00bc</w>": 38877, "\u00f0\u0141\u013a\u0130</w>": 4345, "toonami</w>": 48336, "lapel</w>": 47961, "ferrer</w>": 38904, "ffe</w>": 8631, "artforsale</w>": 48239, "vietnamese</w>": 22382, "loves": 37773, "w": 86, "\u00ec\u0139\u0133\u00ec\u0128": 42763, "amethyst</w>": 31485, "velvet</w>": 11063, "physicians</w>": 26702, "deto": 39710, "interview</w>": 2885, "theaters</w>": 14689, "vid</w>": 9284, "unification</w>": 45036, "aceae</w>": 38153, "industry</w>": 3318, "lovely": 33250, "hanger</w>": 28905, "ymc": 47101, "latest</w>": 2053, "stack": 24723, "fly</w>": 3228, "everything</w>": 2410, "sade</w>": 27429, "ridden</w>": 32025, "pioneering</w>": 25933, "rejuven": 26332, "atelier</w>": 29932, "som": 734, "coupling</w>": 45595, "bwo": 45902, "astron": 7982, "*</w>": 265, "theses</w>": 39388, "skin</w>": 3575, "thebeatles</w>": 35645, "preci": 5470, "predecess": 38963, "metry</w>": 20039, "vander": 16264, "minic": 31522, "immigration</w>": 9588, "fines</w>": 25053, "larry": 18642, "circle</w>": 7117, "gotten</w>": 5889, "monastery</w>": 21850, "operated</w>": 23031, "zach</w>": 11815, "artlovers</w>": 35617, "odd</w>": 11387, "jacks</w>": 19649, "amne": 14596, "\u00e2\u013a\u0133</w>": 42300, "shame": 14776, "preven": 29382, "springfield</w>": 16599, "embo": 23065, "phenom": 31673, "kingdoms</w>": 43890, "lmao</w>": 5121, "le</w>": 579, "kimber": 16796, "dih</w>": 43089, "wins</w>": 2718, "brands</w>": 8681, "dane</w>": 19330, "coated</w>": 23401, "connolly</w>": 29537, "sergei</w>": 39870, "cides</w>": 41326, "inox</w>": 22698, "#</w>": 258, "futureofwork</w>": 33202, "mister": 26949, "au": 627, "jon": 3026, "biker</w>": 23449, "minute": 28931, "bara</w>": 19345, "kade</w>": 41130, "friedman</w>": 29402, "yum": 6869, "few</w>": 1939, "leinster</w>": 32242, "hectic</w>": 37245, "appa</w>": 13110, "valentine</w>": 5876, "versa</w>": 35765, "brooke": 28576, "assume</w>": 19294, "tosc": 37719, "\u00e2\u013a\u0137\u00ef\u00b8\u0131": 25839, "crowley</w>": 32287, "racial</w>": 13801, "intram": 40956, "sail": 7528, "pelled</w>": 32506, "britannia</w>": 36188, "sday": 5902, "caffe": 18258, "youknow</w>": 41088, "unex": 9484, "ladder</w>": 16637, "loc": 1378, "nesburg</w>": 27159, "royalwedding</w>": 27461, "tetra": 40902, "ntr</w>": 30845, "\u00ef\u00bf\u00bd": 47356, "finish": 42178, "gby</w>": 40509, "marching</w>": 15082, "regions</w>": 14530, "accelerate</w>": 23619, "pied": 24686, "convoy</w>": 30292, "ahahaha</w>": 42620, "absurd</w>": 29757, "sterling": 45790, "desperately</w>": 21993, "palo</w>": 31562, "patter": 4982, "oury</w>": 29484, "military</w>": 4323, "brooklyn": 23253, "babs</w>": 36217, "recruit": 9011, "souza</w>": 29424, "proc": 38417, "xing</w>": 14383, "paramore</w>": 34401, "taku</w>": 48168, "ages</w>": 2321, "sensory</w>": 21831, "goria</w>": 43359, "rem": 15098, "maha</w>": 33983, "suzu": 36289, "iger</w>": 20685, "futurism</w>": 48435, "nourish</w>": 46025, "fanart</w>": 7855, "advisor</w>": 12380, "openingday</w>": 36359, "cameron</w>": 8057, "sab</w>": 23213, "tlot</w>": 41080, "allabout": 43996, "employed</w>": 26567, "zeb</w>": 46518, "ontour</w>": 32155, "ances</w>": 3515, "dere": 5701, "eur": 18343, "oic</w>": 45554, "ellar</w>": 38443, "escaping</w>": 21767, "beverlyhills</w>": 45363, "positioning</w>": 30657, "ilife</w>": 42835, "infuri": 48461, "glock</w>": 38818, "jorge</w>": 18225, "lasers</w>": 37060, "beverages</w>": 28521, "relev": 9349, "ring": 8318, "conducted</w>": 13080, "bral</w>": 31309, "popped</w>": 14934, "rive": 27588, "labourdoorstep</w>": 37008, "........</w>": 14720, "victor</w>": 10690, "herit": 4720, "toya</w>": 37602, "xbox</w>": 7748, "numb</w>": 39427, "blu</w>": 10273, "nicar": 25119, "future": 7959, "cine</w>": 27451, "\u00e2\u0142\u0122</w>": 8621, "nai</w>": 10692, "theoretical</w>": 35585, "joachim</w>": 48979, "kup": 39023, "justice": 16904, "whitley</w>": 40564, "taneously</w>": 24422, "mckenna</w>": 24924, "seq</w>": 44379, "lolz</w>": 35260, "correct</w>": 8340, "tioned</w>": 9083, "tougher</w>": 33722, "unforgettable</w>": 16173, "jarrett</w>": 30531, "sioux</w>": 24954, "electricity</w>": 10950, "faint</w>": 30807, "alife</w>": 21100, "smur": 24708, "asr</w>": 48052, "beu": 38660, "rigorous</w>": 41654, "dye": 37159, "bie": 5561, "jin": 7927, "floren": 37706, "roar": 34193, "mosaic</w>": 17506, "colom": 8987, "gilmore</w>": 27603, "procrastin": 25586, "oral": 32490, "cting</w>": 7985, "region": 16542, "ohiostate</w>": 41324, "\u0125</w>": 481, "ticking</w>": 35842, "cork</w>": 10376, "winter</w>": 2541, "loveyou": 39226, "ib": 3962, "hardwell</w>": 45572, "tpp</w>": 29411, "dongha": 28365, "nicki</w>": 17738, "telugu</w>": 22927, "supply</w>": 6389, "ssummit</w>": 49301, "buffal": 25836, "lyte</w>": 40059, "homecoming</w>": 9008, "esta": 41449, "shakti": 48593, "stage": 23182, "ting</w>": 694, "unsuccessful</w>": 47478, "immigrants</w>": 14460, "easy": 18308, "floating</w>": 12619, "proto": 8672, "maan</w>": 33668, "orchestral</w>": 40285, "yoona</w>": 32736, "maths</w>": 14763, "associates</w>": 17358, "spx</w>": 20584, "seinfeld</w>": 33706, "dham": 29635, "muse": 2369, "friend</w>": 1625, "performed</w>": 9997, "recommend</w>": 8942, "comms</w>": 18832, "shall</w>": 4742, "refund</w>": 28899, "bah": 8372, "aas": 28542, "saha": 36062, "lady": 7275, "sad": 2810, "congressman</w>": 17145, "sorta</w>": 34700, "monmouth</w>": 36929, "cfp</w>": 40756, "lasagna</w>": 40683, "akley</w>": 39908, "bharti</w>": 46803, "swagger</w>": 35797, "miya</w>": 36257, "crock": 41685, "caviar</w>": 31228, "marke": 2399, "onion</w>": 10985, "slum</w>": 46754, "drew": 18792, "yesterdays</w>": 36238, "argentina</w>": 9789, "yin": 26476, "jake": 13140, "nwt</w>": 25029, "rabhu</w>": 25806, "missuniverse</w>": 28766, "hill</w>": 2682, "blasio</w>": 35553, "moss</w>": 12815, "advocate</w>": 12044, "treat": 3968, "examination</w>": 20970, "defence</w>": 9659, "exemp": 28602, "amaya</w>": 47210, "sworth</w>": 13322, "reborn</w>": 30229, "idad</w>": 22462, "agroup</w>": 40099, "holly</w>": 11923, "inals</w>": 26438, "assu": 8328, "fan": 1675, "sinha</w>": 29416, "buxton</w>": 41370, "groo": 9015, "worries</w>": 17684, "fuch": 42617, "aggregate</w>": 41318, "\u00e2\u0123\u00a9</w>": 2918, "oun</w>": 20960, "stan": 2203, "zh</w>": 41621, "windo": 3110, "roche</w>": 31776, "\u00f0\u0141\u013b\u0131\u00f0\u0141\u0131\u00bb": 25100, "to": 580, "doh</w>": 23581, "luna</w>": 14425, "immac": 25085, "cesar": 37025, "pascal</w>": 28626, "uab</w>": 35587, "chickens</w>": 21658, "hec": 18932, "versatility</w>": 41340, "harat</w>": 28984, "bsa</w>": 46619, "medallist</w>": 41472, "sfa</w>": 32675, "merrychristmas</w>": 19672, "buu": 42313, "register</w>": 3967, "hollywood": 24655, "tmund</w>": 23801, "zoey</w>": 39871, "knocked</w>": 15325, "\u00f0\u0141\u013c\u00a8\u00f0\u0141\u013c\u00a8</w>": 21440, "docked</w>": 46784, "cena</w>": 21591, "flowing</w>": 14922, "octopus</w>": 22327, "chocolate</w>": 3820, "commentary</w>": 14146, "rsi</w>": 39046, "shakers</w>": 38411, "summer": 5500, "tively</w>": 9883, "kltu</w>": 25978, "eridge</w>": 45408, "eastbound</w>": 28827, "venom</w>": 21588, "veit</w>": 30620, "chen</w>": 8983, "surprise</w>": 5099, "vlog</w>": 18894, "fame</w>": 6573, "iyaki</w>": 48395, "pharmac": 8193, "oni</w>": 8048, "etv": 49155, "\u00f0\u0141\u00a4\u0136": 12706, "tonights</w>": 23312, "sunbathing</w>": 46994, "painter</w>": 10888, "shour</w>": 20025, "hr": 4810, "luxemb": 21314, "bow": 2297, "giorno</w>": 33310, "chment</w>": 20848, "specified</w>": 48114, "sparkle</w>": 18287, "trough</w>": 39761, "kell</w>": 40103, "chelseafc</w>": 25927, "falls</w>": 4778, "cre</w>": 17762, "ghtning</w>": 39740, "rim</w>": 12199, "oute</w>": 44180, "introduction</w>": 11812, "loona</w>": 48137, "'\"</w>": 19479, "soo</w>": 8602, "witz</w>": 13265, "girl": 3914, "mcn": 42919, "pheno": 47336, "wak": 11172, "fabulous</w>": 5189, "franklin</w>": 9999, "basketball</w>": 3835, "aire</w>": 7682, "uniform</w>": 11075, "champag": 10283, "caitlin</w>": 26809, "fellas</w>": 18787, "panna</w>": 49065, "cab": 3033, "faster</w>": 8835, "defeating</w>": 22594, "simpson</w>": 11750, "maze</w>": 21988, "twil": 12804, "onlin": 31103, "fine": 12042, "chiffon</w>": 31817, "hq": 33571, "\u00f0\u0141\u012f\u0130</w>": 32069, "foryou</w>": 35150, "dapl</w>": 34478, "papers</w>": 8204, "nikon": 25488, "thu</w>": 14153, "party": 12877, "biaf": 26961, "brooch</w>": 21207, "fitz": 11120, "active</w>": 4046, "durant</w>": 24861, "unaware</w>": 33347, "ag": 602, "brek": 35494, "moe": 38655, "sian</w>": 6221, "fuji": 15573, "exits</w>": 34943, "ham</w>": 1714, "bagh": 21659, "uan</w>": 33062, "singapore</w>": 6754, "staf": 2367, "annual</w>": 2906, "gosling</w>": 35320, "ahmedabad</w>": 26966, "operators</w>": 19267, "livepd</w>": 31899, "cask</w>": 26299, "witch": 20139, "list</w>": 1998, "robbing</w>": 47569, "vl": 37580, "faa</w>": 27577, "char": 1054, "haya</w>": 41325, "shop": 5738, "pieces</w>": 6194, "\u00e3\u0122\u012f</w>": 19149, "collegi": 16311, "bakar</w>": 41414, "\u0128": 228, "prin": 1588, "covenant</w>": 29647, "bma</w>": 42573, "referee</w>": 20398, "zoom": 32671, "pne": 30966, "edmun": 36561, "dric</w>": 23448, "kills</w>": 9795, "thierry</w>": 32929, "dion": 42899, "finale</w>": 7844, "presidency</w>": 18077, "repping</w>": 22574, "disparities</w>": 45122, "theart": 44678, "H": 39, "bmw": 26637, "nuts</w>": 8644, "hea</w>": 32790, "sexu": 14741, "crafts": 33276, "ated": 14589, "chig": 42952, "pitbull</w>": 25295, "stealth</w>": 25327, "youre": 28344, "wnba</w>": 32358, "disobe": 42841, "dano</w>": 29703, "ql</w>": 28366, "disturb</w>": 39449, "ipc</w>": 41981, "geek</w>": 7135, "lder</w>": 6945, "wm</w>": 15790, "uhm</w>": 35614, "mistle": 46800, "ning": 6050, "burnout</w>": 36078, "ous": 1987, "mark": 3805, "rotter": 22614, "tor": 937, "genital</w>": 32960, "calendars</w>": 17229, "expressions</w>": 20314, "amethy": 30291, "rm</w>": 8431, "pxrtg</w>": 36262, "manure</w>": 47907, ")</w>": 264, "naby</w>": 24800, "sweets</w>": 18045, "nazi</w>": 12972, "strol": 30123, "meck": 41908, "enslaved</w>": 48675, "fri": 815, "rattle": 40824, "kickboxing</w>": 36041, "vant": 26298, "univers": 5855, "bathtub</w>": 39942, "fau</w>": 31381, "desch": 49209, "\u00f0\u0141\u0129\u00b5\u00f0\u0141\u0129\u0143</w>": 42777, "poverty</w>": 9095, "ashton": 43264, "iland</w>": 20957, "rejoice</w>": 24712, "\u00f0": 172, "T</w>": 307, "incredibleindia</w>": 24680, "malam</w>": 48956, "shadow</w>": 7068, "lingering</w>": 46494, "uploaded</w>": 16793, "catastrophic</w>": 34448, "octo": 31032, "este": 12968, "dha</w>": 27377, "bap</w>": 23754, "bery</w>": 11411, "qing": 46522, "convert</w>": 20074, "ozzy</w>": 39549, "willie</w>": 13907, "momlife</w>": 43825, "peds</w>": 45377, "jukebox</w>": 36411, "\u00f0\u0141\u0131\u0128": 9585, "asda</w>": 29391, "annis</w>": 24742, "competition</w>": 3742, "recalling</w>": 47855, "inevit": 45871, "pamph": 41332, "madison</w>": 8791, "kjv</w>": 37387, "monza</w>": 40380, "administrative</w>": 22424, "zo": 4397, "eden</w>": 13741, "holy</w>": 4874, "uncover</w>": 33031, "rhp</w>": 27199, "gatwick</w>": 37122, "thismorning</w>": 36245, "\u00f0\u0141\u0134\u00a5\u00f0\u0141\u0134\u00a5": 27396, "carnaval</w>": 47238, "flush</w>": 25777, "tight</w>": 9123, "ppy": 30360, "purge</w>": 33514, "mate": 6137, "novella</w>": 42770, "thought": 23948, "goes": 43581, "colum": 4164, "stralia</w>": 42510, "waq": 47512, "hollywood</w>": 5518, "gaard</w>": 24645, "fortress</w>": 19988, "seventeen</w>": 19337, "ases</w>": 3762, "\u00c2\u00b0": 21305, "rehabilitation</w>": 21042, "refugees</w>": 8316, "descri": 4637, "screen</w>": 3750, "daring</w>": 28166, "efa</w>": 16999, "adl</w>": 49351, "mais</w>": 28153, "sivity</w>": 42738, "ego</w>": 14250, "thread</w>": 8815, "protect</w>": 4817, "iteam</w>": 37828, "sitt": 42988, "solstice</w>": 21359, "lur": 14439, "pree</w>": 47026, "\u00f0\u0141\u013b\u012e\u00f0\u0141\u0131\u00bb": 26756, "ssian</w>": 31218, "daugh": 42523, "silicon": 32412, "alham": 23352, "ns": 12405, "beasts</w>": 21771, "toothbrush</w>": 36841, "institution</w>": 18823, "blasting</w>": 26178, "nephe": 41810, "prawn</w>": 33102, "iconic</w>": 6959, "nold</w>": 40322, "apore</w>": 6679, "lim": 2377, "drop</w>": 3387, "hostel</w>": 27225, "jews</w>": 14200, "berni": 18798, "naruto</w>": 22732, "integrity</w>": 14791, "ummer</w>": 47628, "guido</w>": 41818, "johnson</w>": 4010, "unsung</w>": 33015, "failing</w>": 15757, "cameo</w>": 19492, "pads</w>": 17353, "sler</w>": 14066, "disappointing</w>": 21941, "bagel</w>": 28777, "machado</w>": 42318, "rodrigo</w>": 33944, "thof": 18943, "tr": 635, "utili": 17015, "exempli": 41934, "stolic</w>": 45020, "abbie</w>": 39949, "nano</w>": 22006, "towards</w>": 4447, "cta</w>": 28397, "\u00e3\u0127\u012d</w>": 25108, "sharp</w>": 8157, "weare": 4264, "endent</w>": 16265, "f": 69, "fas": 4830, "travis": 27441, "released</w>": 3410, "rainbows</w>": 30483, "kitties</w>": 36013, "refers</w>": 30069, "makeyourown": 34090, "here</w>": 763, "\u00e2\u013b": 1548, "jeon</w>": 43337, "wolver": 14334, "bad</w>": 2103, "\u00f0\u0141\u012e\u00b2</w>": 28154, "xi</w>": 7376, "\u00e2\u0138\u00b6": 12509, "appear</w>": 9308, "fluorescent</w>": 35036, "artiste</w>": 41402, "meditation</w>": 10827, "cker</w>": 4744, "colonel</w>": 22674, "hendrick</w>": 45296, "synod</w>": 47712, "flew</w>": 13768, "exposes</w>": 33575, "breast</w>": 9475, "kinney</w>": 37233, "genoci": 14687, "gertrude</w>": 46950, "\u00df": 155, "\u00f0\u0141\u0134\u0122": 14888, "equities</w>": 44015, "par</w>": 9163, "conqu": 13382, "curtis</w>": 13808, "smes</w>": 26141, "contra": 9880, "highlighting</w>": 17344, "restricted</w>": 27197, "scanner</w>": 24185, "gentle</w>": 13577, "maia</w>": 46585, "proudest</w>": 46806, "\u0124\u00e2\u0138\u0124\u00e2\u0138": 30832, "etwork</w>": 20585, "mem": 4937, "zazzle</w>": 47857, "innis": 44059, "stine</w>": 7098, "developmental</w>": 29347, "charlton</w>": 27048, "miserable</w>": 26196, "furnitu": 45696, "ownership</w>": 16583, "?!\"</w>": 29315, "smarthome</w>": 47726, "paranor": 16940, "womeninstem</w>": 29380, "policemen</w>": 47946, "visual": 17004, "marched</w>": 37976, "\u00f0\u0141\u0128\u013c</w>": 16325, "ny</w>": 1350, "fees</w>": 11765, "\"...</w>": 9049, "8": 23, "neau</w>": 31559, "ridiculously</w>": 25661, "pcso</w>": 31963, "kenyans</w>": 36263, "devotees</w>": 39759, "ozone</w>": 37052, "cv</w>": 13947, "la</w>": 1210, "coy": 12765, "passage</w>": 16477, "universityof": 46158, "warbler</w>": 33891, "bloggers</w>": 11627, "mg</w>": 8014, "carol": 4242, "alley": 36205, "dles</w>": 7890, "homedepot</w>": 38707, "gry": 16140, "c\u00c3\u00a9": 36454, "vatican</w>": 21030, "abe</w>": 12734, "azzle</w>": 39974, "tson</w>": 47140, "markle</w>": 32672, "ssg</w>": 40707, "\u00e0\u00b8": 1777, "\u00f0\u0141\u0134\u013b\u00f0\u0141\u0134\u013b\u00f0\u0141\u0134\u013b</w>": 30698, "acing</w>": 9442, "swell</w>": 21490, "protesters</w>": 12660, "aiken</w>": 46342, "seattle</w>": 6274, "hardworkpaysoff</w>": 49193, ">>>>></w>": 32972, "naq": 46453, "wouldn</w>": 5878, "minat</w>": 33275, "oneteam</w>": 41094, "omile</w>": 46915, "uss": 11545, "health</w>": 1728, "jess": 5313, "fener": 41208, "realization</w>": 40402, "fountains</w>": 37411, "pico</w>": 23363, "gol": 1537, "tommy": 16573, "illac</w>": 17218, "stance": 48900, "contained</w>": 23836, "scholarships</w>": 17866, "bidding</w>": 23237, "earnest</w>": 45422, "javi</w>": 47627, "nav</w>": 25308, "dnr</w>": 37051, "cky": 26229, "situated</w>": 22030, "ritual</w>": 19712, "lets": 10448, "happyeaster</w>": 38745, "gbr</w>": 31984, "generosity</w>": 23015, "mersey": 25248, "demi": 32879, "travi": 46971, "error</w>": 12097, "lot": 5132, "itchen</w>": 32664, "pad</w>": 7601, "surgeon</w>": 16039, "johnny": 14464, "\u00ec\u0139\u0132": 37622, "sf": 4435, "gsp</w>": 49173, "traces</w>": 30913, "cleanliness</w>": 47886, "fis": 7846, "zir": 31892, "doubled</w>": 24948, "innovation</w>": 4272, "neo</w>": 11017, "\u00c5": 129, "hearn</w>": 36613, "gency</w>": 5245, "medley</w>": 24793, "irrit": 24218, "attraction</w>": 16807, "express": 18553, "kit</w>": 4274, "residency</w>": 18545, "traffic": 12080, "pointing</w>": 19233, "immensely</w>": 35013, "seiz": 22171, "sti</w>": 12439, "confederate</w>": 24864, "india</w>": 1762, "isra": 3591, "quartz</w>": 17752, "crush</w>": 7610, "wrs</w>": 45280, "elen</w>": 39164, "ghi</w>": 22279, "\u00d8\u00a7\u00d9\u0128</w>": 33200, "inge</w>": 7071, "later": 24109, "conferences</w>": 22811, "kt</w>": 7792, "internet</w>": 4757, "bsu</w>": 46385, "benny": 42369, "swelling</w>": 46578, "isoo</w>": 35857, "lovers</w>": 5973, "zimmerman</w>": 38231, "bibi</w>": 31182, "textile</w>": 19789, "natures</w>": 15616, "continuing</w>": 11009, "swollen</w>": 36129, "bulk</w>": 19643, "news</w>": 1120, "\u0107</w>": 451, "juana</w>": 9081, "bliss": 28531, "agles": 36374, "awan</w>": 20420, "antigua</w>": 39910, "commercials</w>": 30724, "jiang": 43309, "vit</w>": 35580, "tobac": 12611, "thorn</w>": 18466, "fade</w>": 20486, "strengthens</w>": 40280, "focal</w>": 30934, "\u00f0\u0141\u0133\u0123": 47796, "alls</w>": 1997, "\u00f0\u0141\u0132\u012b</w>": 46908, "maroon</w>": 20501, "ribs</w>": 17519, "rte</w>": 23322, "election": 19312, "cure": 36758, "ert": 40325, "camoufla": 23667, "ncis</w>": 33617, "giver</w>": 43339, "eton</w>": 44339, "depicting</w>": 24970, "xie</w>": 15976, "\u00f3</w>": 431, "prem</w>": 21724, "award": 36310, "thankfully</w>": 22089, "paris</w>": 3445, "freshman</w>": 9381, "wwww</w>": 25200, "hon</w>": 10296, "dition</w>": 3015, "\u00f0\u0141\u0135\u00b0</w>": 14985, "gays</w>": 28001, "kilkenny</w>": 33805, "ered</w>": 9097, "jada</w>": 37416, "bmi</w>": 40642, "gentry</w>": 47225, "publication</w>": 13538, "complaining</w>": 20812, "jer": 2310, "hos</w>": 25008, "spro": 13902, "growthhacking</w>": 25963, "bello</w>": 21954, "abbey": 31927, "inim": 38717, "tortoise</w>": 30178, "gigantic</w>": 31507, "tole": 15677, "ews</w>": 9878, "s\u00c3\u00a3o</w>": 45911, "clever": 30977, "emabiggestfans</w>": 29587, "stark</w>": 15353, "miracles</w>": 23478, "predictable</w>": 25344, "3</w>": 274, "threatening</w>": 16400, "compac": 40014, "mant</w>": 27037, "cathy": 40326, "disappoints</w>": 48545, "elvi": 47008, "\u00c3\u00aa": 27515, "export</w>": 14444, "pro</w>": 2630, "illusions</w>": 47429, "spie": 28573, "barrabest</w>": 41376, "aguchi</w>": 49206, "sculpt</w>": 45044, "nys</w>": 23423, "pra</w>": 19285, "vice</w>": 6931, "outlets</w>": 20822, "\u00f0\u0141\u00a4\u00a9": 27351, "\u00f1": 173, "enduro</w>": 47042, "scholar": 7192, "vacant</w>": 25262, "structures</w>": 14171, "shire": 11975, "increases</w>": 13797, "($)</w>": 46597, "muaythai</w>": 47763, "monitored</w>": 45828, "dari": 16292, "jarvis</w>": 29286, "benghazi</w>": 25967, "brom</w>": 33296, "lennon</w>": 18360, "warfare</w>": 15739, "villas</w>": 28907, "overload</w>": 24327, "snowfall</w>": 21714, "hud</w>": 28563, "italians</w>": 44744, "casually</w>": 18840, "lle": 26550, "translates</w>": 36334, "\u00f0\u0141\u0134\u012d": 12217, "\u00f0\u0141\u0130\u0122": 34347, "leagues</w>": 19888, "\u00f0\u0141\u0133\u012f\u00f0\u0141\u0133\u012f</w>": 18997, "aay</w>": 40249, "toward</w>": 8508, "dho": 37834, "morg": 34284, "trun": 16163, "akes</w>": 4764, "vins</w>": 34820, "maya": 45783, "reports</w>": 4908, "styles</w>": 6948, "cancelled</w>": 13270, "note": 10910, "midterm</w>": 34365, "glee": 32379, "sni": 7186, "contempt</w>": 39293, "thinkbig": 26015, "degrees</w>": 8000, "percu": 41722, "guk</w>": 20280, "stock": 5899, "\u00bb</w>": 375, "rangers</w>": 7664, "nat</w>": 11310, "windy</w>": 13446, "sier</w>": 7444, "vine": 8471, "stomping</w>": 46144, "erdogan</w>": 24453, "sinking</w>": 27949, "deutsche</w>": 32760, "\u00e2\u013c\u00aa\u00ef\u00b8\u0131</w>": 17885, "nima</w>": 42586, "greenville</w>": 25156, "methodology</w>": 37316, "brentwood</w>": 33108, "remin": 3216, "moonlight</w>": 20001, "procedural</w>": 48177, "faceli": 32023, "integral</w>": 27018, "trafford</w>": 22912, "hahah": 27253, "miles</w>": 3446, "twelf": 39443, "myri": 34972, "redness</w>": 22626, "tuscany</w>": 20885, "ruben": 44058, "courtyard</w>": 21900, "hiber": 38799, "bay</w>": 2174, "sliders</w>": 40700, "slice</w>": 13431, "ashamed</w>": 20633, "humanities</w>": 24949, "constantly</w>": 14336, "chewy</w>": 42940, "elxn</w>": 37726, "____</w>": 25350, "assist": 26558, "dana": 44834, "controversi": 13674, "condem": 13287, "elovers</w>": 33946, "node</w>": 24871, "odu</w>": 39904, "propose</w>": 28471, "royalnavy</w>": 41545, "bucket</w>": 10498, "moncton</w>": 44962, "fracture</w>": 28995, "\u00f0\u0141\u013a\u0135</w>": 28733, "dupont</w>": 35994, "hibition</w>": 24658, "sunder": 15097, "makes</w>": 2088, "tdi</w>": 45621, "gibraltar</w>": 23988, "spie</w>": 28746, "genome</w>": 23991, "aring</w>": 2142, "whisp": 21986, "herb</w>": 15302, "borne</w>": 9328, "shahid": 25696, "psychological</w>": 18153, "uneven</w>": 43204, "\u00f0\u0141\u0135\u00bb": 32711, "ludwig</w>": 30633, "byz": 35406, "kidd</w>": 24082, "marsden</w>": 43344, "ibd</w>": 40732, "avant</w>": 24305, "icha": 31453, "\u00e2\u013c\u00ab\u00ef\u00b8\u0131": 26529, "releg": 23378, "ticks</w>": 40269, "moil</w>": 30349, "musc": 5696, "retriever</w>": 28394, "rockstars</w>": 46639, "vapor</w>": 30729, "shirtless</w>": 28959, "sandwich": 17050, "dsa</w>": 47607, "matte": 31237, "duc": 979, "albuquerque</w>": 31079, "hailed</w>": 44604, "franca": 48952, "mtb": 48306, "signup</w>": 40791, "wo": 1613, "onec": 27746, "ance</w>": 884, "ghe": 10754, "winery</w>": 15500, "turk</w>": 32507, "cigare": 13044, "releasethe": 44008, "utterly</w>": 21353, "spring": 5166, "raf</w>": 11490, "russian": 30731, "leve": 36271, "shard</w>": 42207, "ires</w>": 12435, "duke": 18402, "bibli": 23465, "wages</w>": 19114, "lure</w>": 31376, "\u00d1\u0126": 27993, "geocaching</w>": 47908, "listeners</w>": 26901, "berth</w>": 28317, "yugo": 48231, "eros</w>": 30597, "ism</w>": 1935, "gotham": 46123, "sabi</w>": 47073, "kovic</w>": 16886, "teammate</w>": 17900, "landrover</w>": 38125, "attempt</w>": 7409, "publish</w>": 19032, "akh</w>": 30660, "venus</w>": 14691, "barnard</w>": 44332, "bellum</w>": 35493, "rico": 37962, "clique</w>": 34983, "illumination</w>": 43680, "deputies</w>": 24914, "pgh": 44862, "racer</w>": 16798, "kendra</w>": 36074, "\u00eb\u00b0\u00a9": 23273, "made</w>": 1105, "deadly</w>": 10756, "talkin</w>": 26040, ".!</w>": 14030, "cotsw": 23303, "al</w>": 566, "youtube</w>": 3895, "damascus</w>": 25396, "clan</w>": 14114, "hurdle</w>": 27486, "cognac</w>": 44361, "cantina</w>": 47472, "emmanuel": 48045, ":\"</w>": 12089, "keynote</w>": 7556, "swallowed</w>": 46956, "abra": 10694, "nasty</w>": 8709, "council": 18187, "\u00e3\u0125\u00b3\u00e3\u0124": 45105, "\u00e2\u0124\u00b9</w>": 21777, "kani": 40907, "ante": 19311, "christmas</w>": 1677, "ashby</w>": 46531, "travellers</w>": 29583, "sparty</w>": 36477, "canary": 40409, "night": 3870, "ylon</w>": 22375, "facade</w>": 29217, "bret": 38020, "evol": 5350, "disneyworld</w>": 28469, "eci": 31936, "hatch": 24202, "\u00e2\u013c\u00a1</w>": 20712, "iggy": 46219, "caleb</w>": 19619, "cores</w>": 37874, "jewels</w>": 20205, "lanta</w>": 44768, "aven": 5963, "scue</w>": 25955, "britain": 40802, "raje": 21899, "project": 15911, "belt": 36416, "tua</w>": 41344, "endthe": 46256, "dunedin</w>": 40121, "capsules</w>": 32870, "partner": 5210, "belongs</w>": 14395, "presidente</w>": 47363, "gent": 3685, "whale": 37083, "bernat": 40578, "spel": 41887, "ddles</w>": 33901, "sri": 11051, "stir</w>": 19564, "bula</w>": 18726, "expecting</w>": 12525, "bryan": 16134, "parker</w>": 8365, "sneak": 27871, "zim</w>": 22577,
[...]
